{"version":"1.0","truncation":null,"padding":null,"added_tokens":[{"id":0,"special":true,"content":"[PAD]","single_word":false,"lstrip":false,"rstrip":false,"normalized":false},{"id":100,"special":true,"content":"[UNK]","single_word":false,"lstrip":false,"rstrip":false,"normalized":false},{"id":101,"special":true,"content":"[CLS]","single_word":false,"lstrip":false,"rstrip":false,"normalized":false},{"id":102,"special":true,"content":"[SEP]","single_word":false,"lstrip":false,"rstrip":false,"normalized":false},{"id":103,"special":true,"content":"[MASK]","single_word":false,"lstrip":false,"rstrip":false,"normalized":false}],"normalizer":{"type":"BertNormalizer","clean_text":true,"handle_chinese_chars":true,"strip_accents":null,"lowercase":false},"pre_tokenizer":{"type":"BertPreTokenizer"},"post_processor":{"type":"TemplateProcessing","single":[{"SpecialToken":{"id":"[CLS]","type_id":0}},{"Sequence":{"id":"A","type_id":0}},{"SpecialToken":{"id":"[SEP]","type_id":0}}],"pair":[{"SpecialToken":{"id":"[CLS]","type_id":0}},{"Sequence":{"id":"A","type_id":0}},{"SpecialToken":{"id":"[SEP]","type_id":0}},{"Sequence":{"id":"B","type_id":1}},{"SpecialToken":{"id":"[SEP]","type_id":1}}],"special_tokens":{"[CLS]":{"id":"[CLS]","ids":[101],"tokens":["[CLS]"]},"[SEP]":{"id":"[SEP]","ids":[102],"tokens":["[SEP]"]}}},"decoder":{"type":"WordPiece","prefix":"##","cleanup":true},"model":{"type":"WordPiece","unk_token":"[UNK]","continuing_subword_prefix":"##","max_input_chars_per_word":100,"vocab":{"[PAD]":0,"[unused1]":1,"[unused2]":2,"[unused3]":3,"[unused4]":4,"[unused5]":5,"[unused6]":6,"[unused7]":7,"[unused8]":8,"[unused9]":9,"[unused10]":10,"[unused11]":11,"[unused12]":12,"[unused13]":13,"[unused14]":14,"[unused15]":15,"[unused16]":16,"[unused17]":17,"[unused18]":18,"[unused19]":19,"[unused20]":20,"[unused21]":21,"[unused22]":22,"[unused23]":23,"[unused24]":24,"[unused25]":25,"[unused26]":26,"[unused27]":27,"[unused28]":28,"[unused29]":29,"[unused30]":30,"[unused31]":31,"[unused32]":32,"[unused33]":33,"[unused34]":34,"[unused35]":35,"[unused36]":36,"[unused37]":37,"[unused38]":38,"[unused39]":39,"[unused40]":40,"[unused41]":41,"[unused42]":42,"[unused43]":43,"[unused44]":44,"[unused45]":45,"[unused46]":46,"[unused47]":47,"[unused48]":48,"[unused49]":49,"[unused50]":50,"[unused51]":51,"[unused52]":52,"[unused53]":53,"[unused54]":54,"[unused55]":55,"[unused56]":56,"[unused57]":57,"[unused58]":58,"[unused59]":59,"[unused60]":60,"[unused61]":61,"[unused62]":62,"[unused63]":63,"[unused64]":64,"[unused65]":65,"[unused66]":66,"[unused67]":67,"[unused68]":68,"[unused69]":69,"[unused70]":70,"[unused71]":71,"[unused72]":72,"[unused73]":73,"[unused74]":74,"[unused75]":75,"[unused76]":76,"[unused77]":77,"[unused78]":78,"[unused79]":79,"[unused80]":80,"[unused81]":81,"[unused82]":82,"[unused83]":83,"[unused84]":84,"[unused85]":85,"[unused86]":86,"[unused87]":87,"[unused88]":88,"[unused89]":89,"[unused90]":90,"[unused91]":91,"[unused92]":92,"[unused93]":93,"[unused94]":94,"[unused95]":95,"[unused96]":96,"[unused97]":97,"[unused98]":98,"[unused99]":99,"[UNK]":100,"[CLS]":101,"[SEP]":102,"[MASK]":103,"<S>":104,"<T>":105,"!":106,"##!":107,"\"":108,"##\"":109,"#":110,"###":111,"$":112,"##$":113,"%":114,"##%":115,"&":116,"##&":117,"'":118,"##'":119,"(":120,"##(":121,")":122,"##)":123,"*":124,"##*":125,"+":126,"##+":127,",":128,"##,":129,"-":130,"##-":131,".":132,"##.":133,"/":134,"##/":135,"0":136,"##0":137,"1":138,"##1":139,"2":140,"##2":141,"3":142,"##3":143,"4":144,"##4":145,"5":146,"##5":147,"6":148,"##6":149,"7":150,"##7":151,"8":152,"##8":153,"9":154,"##9":155,":":156,"##:":157,";":158,"##;":159,"<":160,"##<":161,"=":162,"##=":163,">":164,"##>":165,"?":166,"##?":167,"@":168,"##@":169,"A":170,"##A":171,"B":172,"##B":173,"C":174,"##C":175,"D":176,"##D":177,"E":178,"##E":179,"F":180,"##F":181,"G":182,"##G":183,"H":184,"##H":185,"I":186,"##I":187,"J":188,"##J":189,"K":190,"##K":191,"L":192,"##L":193,"M":194,"##M":195,"N":196,"##N":197,"O":198,"##O":199,"P":200,"##P":201,"Q":202,"##Q":203,"R":204,"##R":205,"S":206,"##S":207,"T":208,"##T":209,"U":210,"##U":211,"V":212,"##V":213,"W":214,"##W":215,"X":216,"##X":217,"Y":218,"##Y":219,"Z":220,"##Z":221,"[":222,"##[":223,"\\":224,"##\\":225,"]":226,"##]":227,"^":228,"##^":229,"_":230,"##_":231,"a":232,"##a":233,"b":234,"##b":235,"c":236,"##c":237,"d":238,"##d":239,"e":240,"##e":241,"f":242,"##f":243,"g":244,"##g":245,"h":246,"##h":247,"i":248,"##i":249,"j":250,"##j":251,"k":252,"##k":253,"l":254,"##l":255,"m":256,"##m":257,"n":258,"##n":259,"o":260,"##o":261,"p":262,"##p":263,"q":264,"##q":265,"r":266,"##r":267,"s":268,"##s":269,"t":270,"##t":271,"u":272,"##u":273,"v":274,"##v":275,"w":276,"##w":277,"x":278,"##x":279,"y":280,"##y":281,"z":282,"##z":283,"{":284,"##{":285,"|":286,"##|":287,"}":288,"##}":289,"~":290,"##~":291,"о":292,"##о":293,"е":294,"£":295,"##£":296,"##е":297,"¦":298,"§":299,"##§":300,"а":301,"©":302,"##а":303,"«":304,"##«":305,"¬":306,"##¬":307,"®":308,"##®":309,"°":310,"##°":311,"±":312,"##±":313,"²":314,"##²":315,"³":316,"##³":317,"µ":318,"¶":319,"·":320,"##·":321,"и":322,"##и":323,"º":324,"##º":325,"»":326,"##»":327,"¼":328,"##¼":329,"½":330,"##½":331,"т":332,"##т":333,"н":334,"##н":335,"с":336,"##с":337,"р":338,"##р":339,"в":340,"##в":341,"л":342,"##л":343,"к":344,"##к":345,"м":346,"##м":347,"д":348,"##д":349,"п":350,"##п":351,"у":352,"##у":353,"ы":354,"##ы":355,"ь":356,"##ь":357,"я":358,"##я":359,"б":360,"##б":361,"ч":362,"×":363,"##×":364,"##ч":365,"з":366,"##з":367,"г":368,"##г":369,"й":370,"##й":371,"ж":372,"ß":373,"##ß":374,"à":375,"##à":376,"á":377,"##á":378,"##ж":379,"х":380,"##х":381,"ш":382,"ä":383,"##ä":384,"å":385,"##å":386,"æ":387,"##æ":388,"ç":389,"##ç":390,"è":391,"##è":392,"é":393,"##é":394,"ê":395,"##ê":396,"ë":397,"##ë":398,"ì":399,"##ì":400,"í":401,"##í":402,"##ш":403,"ю":404,"##ю":405,"ц":406,"ð":407,"##ð":408,"ñ":409,"##ñ":410,"##ц":411,"э":412,"ó":413,"##ó":414,"ô":415,"##ô":416,"##э":417,"щ":418,"ö":419,"##ö":420,"÷":421,"##÷":422,"ø":423,"##ø":424,"##щ":425,"ф":426,"ú":427,"##ú":428,"##ф":429,"П":430,"ü":431,"##ü":432,"ý":433,"##ý":434,"##П":435,"В":436,"##В":437,"Н":438,"##Н":439,"ā":440,"##ā":441,"С":442,"##С":443,"—":444,"А":445,"ą":446,"##ą":447,"##А":448,"ć":449,"##ć":450,"К":451,"##К":452,"č":453,"##č":454,"–":455,"О":456,"##О":457,"И":458,"##И":459,"ē":460,"##ē":461,"ё":462,"##ё":463,"Т":464,"##Т":465,"Д":466,"##Д":467,"ę":468,"##ę":469,"ě":470,"##ě":471,"М":472,"##М":473,"Р":474,"##Р":475,"Е":476,"##Е":477,"Я":478,"##Я":479,"Б":480,"##Б":481,"ī":482,"##ī":483,"Э":484,"##Э":485,"У":486,"##У":487,"ı":488,"##ı":489,"Г":490,"##Г":491,"З":492,"##З":493,"Л":494,"##Л":495,"Ч":496,"##Ч":497,"Х":498,"ł":499,"##ł":500,"##Х":501,"Ф":502,"##Ф":503,"ъ":504,"##ъ":505,"Ш":506,"##Ш":507,"Ж":508,"##Ж":509,"Ц":510,"##Ц":511,"ō":512,"##ō":513,"Ю":514,"##Ю":515,"і":516,"##і":517,"…":518,"Ы":519,"##Ы":520,"Й":521,"##Й":522,"ř":523,"##ř":524,"Ь":525,"##Ь":526,"ś":527,"##ś":528,"“":529,"”":530,"№":531,"##№":532,"Š":533,"##Š":534,"š":535,"##š":536,"Щ":537,"##Щ":538,"•":539,"##•":540,"ї":541,"##ї":542,"Ё":543,"##Ё":544,"є":545,"##є":546,"’":547,"↑":548,"™":549,"##™":550,"́":551,"##́":552,"„":553,"##„":554,"−":555,"##−":556,"Ъ":557,"##Ъ":558,"І":559,"ż":560,"##ż":561,"##І":562,"€":563,"ž":564,"##ž":565,"##€":566,"ѕ":567,"`":568,"‚":569,"##‚":570,"→":571,"##→":572,"ǐ":573,"♪":574,"ў":575,"##ў":576,"Ѕ":577,"●":578,"ѣ":579,"##ѣ":580,"Ѓ":581,"‘":582,"―":583,"α":584,"##α":585,"Ђ":586,"ə":587,"##ə":588,"ɛ":589,"##ɛ":590,"☆":591,"ј":592,"##ј":593,"‑":594,"ɪ":595,"##ɪ":596,"Є":597,"##Є":598,"づ":599,"ґ":600,"ρ":601,"##ρ":602,"ѓ":603,"λ":604,"##λ":605,"Њ":606,"ε":607,"##ε":608,"‹":609,"ο":610,"##ο":611,"ا":612,"##ا":613,"Џ":614,"←":615,"##←":616,"π":617,"##π":618,"ς":619,"##ς":620,"ˈ":621,"##ˈ":622,"ː":623,"##ː":624,"★":625,"μ":626,"##μ":627,"≈":628,"##≈":629,"‡":630,"█":631,"τ":632,"##τ":633,"י":634,"##י":635,"‿":636,"̲":637,"►":638,"ו":639,"##ו":640,"ل":641,"##ل":642,"ν":643,"##ν":644,"Δ":645,"##Δ":646,"َ":647,"##َ":648,"ι":649,"##ι":650,"，":651,"##，":652,"ү":653,"##ү":654,"″":655,"##″":656,"م":657,"##م":658,"δ":659,"##δ":660,"γ":661,"##γ":662,"ה":663,"##ה":664,"的":665,"？":666,"。":667,"Λ":668,"##Λ":669,"─":670,"##─":671,"β":672,"##β":673,"ל":674,"##ל":675,"σ":676,"##σ":677,"ר":678,"##ר":679,"ә":680,"##ә":681,"κ":682,"##κ":683,"≠":684,"Ї":685,"ω":686,"##ω":687,"ُ":688,"##ُ":689,"ת":690,"##ת":691,"א":692,"ά":693,"##ά":694,"έ":695,"##έ":696,"##א":697,"و":698,"ί":699,"##ί":700,"##و":701,"ن":702,"##ن":703,"ツ":704,"ر":705,"##ر":706,"ב":707,"##ב":708,"φ":709,"##φ":710,"ي":711,"##ي":712,"η":713,"##η":714,"θ":715,"##θ":716,"מ":717,"##מ":718,"↓":719,"ө":720,"##ө":721,"′":722,"##′":723,"ْ":724,"##ْ":725,"қ":726,"##қ":727,"♦":728,"ِ":729,"##ِ":730,"！":731,"ό":732,"##ό":733,"ש":734,"##ש":735,"Ћ":736,"ب":737,"##ب":738,"■":739,"我":740,"υ":741,"##υ":742,"♥":743,"≤":744,"##≤":745,"ְ":746,"##ְ":747,"学":748,"Ќ":749,"ஜ":750,"ه":751,"##ه":752,"נ":753,"##נ":754,"ד":755,"##ד":756,"ָ":757,"##ָ":758,"†":759,"##†":760,"）":761,"##）":762,"数":763,"≡":764,"一":765,"（":766,"##（":767,"▪":768,"√":769,"出":770,"ಠ":771,"∞":772,"你":773,"ע":774,"Ў":775,"##ע":776,"社":777,"د":778,"##د":779,"十":780,"版":781,"人":782,"##人":783,"ם":784,"##ם":785,"ғ":786,"##ғ":787,"س":788,"##س":789,"ң":790,"##ң":791,"##то":792,"##но":793,"##ст":794,"##ро":795,"##ен":796,"по":797,"##ет":798,"##ра":799,"##ли":800,"на":801,"не":802,"##ко":803,"##ер":804,"##ть":805,"##ль":806,"##ва":807,"##ни":808,"##го":809,"##ло":810,"##ри":811,"##ла":812,"##ка":813,"##на":814,"##ны":815,"##во":816,"##ем":817,"##ки":818,"##да":819,"##ся":820,"##та":821,"то":822,"за":823,"ко":824,"что":825,"##ти":826,"##ак":827,"##ре":828,"##те":829,"про":830,"##ени":831,"##ле":832,"##ди":833,"ра":834,"##ви":835,"##де":836,"##ми":837,"это":838,"##не":839,"бы":840,"мо":841,"##ля":842,"##ру":843,"##мо":844,"##ма":845,"во":846,"от":847,"##бо":848,"до":849,"со":850,"##ес":851,"вы":852,"##до":853,"##чи":854,"##се":855,"при":856,"##же":857,"##ча":858,"##по":859,"##ци":860,"##ста":861,"##сь":862,"##ры":863,"##си":864,"го":865,"##ве":866,"##сть":867,"##ей":868,"##за":869,"об":870,"ка":871,"##ку":872,"##ну":873,"##ду":874,"##сти":875,"но":876,"##сто":877,"##му":878,"как":879,"##ши":880,"та":881,"##льно":882,"из":883,"##со":884,"##ют":885,"да":886,"ни":887,"все":888,"##хо":889,"##па":890,"##лу":891,"##ше":892,"раз":893,"##га":894,"##ще":895,"бо":896,"##ги":897,"##ере":898,"##жно":899,"ре":900,"##ный":901,"##ту":902,"##вы":903,"те":904,"##ме":905,"##ные":906,"##са":907,"де":908,"##ня":909,"##енно":910,"##пи":911,"##ень":912,"##ты":913,"По":914,"##кой":915,"хо":916,"##ется":917,"под":918,"##..":919,"##жи":920,"##ения":921,"##че":922,"са":923,"ва":924,"ма":925,"##вать":926,"так":927,"##би":928,"##чно":929,"кото":930,"##лько":931,"пре":932,"##гда":933,"##щи":934,"бу":935,"##ных":936,"##сли":937,"##ение":938,"##жа":939,"же":940,"##вер":941,"ли":942,"##ря":943,"па":944,"##ств":945,"##дно":946,"##ут":947,"##бы":948,"для":949,"сво":950,"##зо":951,"##бе":952,"##шь":953,"##ски":954,"##чес":955,"##лю":956,"ста":957,"##дет":958,"##ско":959,"##ная":960,"си":961,"ме":962,"ст":963,"##зи":964,"ви":965,"ми":966,"лю":967,"##мен":968,"сто":969,"##мер":970,"...":971,"##вно":972,"зна":973,"##пе":974,"##ке":975,"се":976,"##вет":977,"##ша":978,"##рем":979,"##мы":980,"##жет":981,"##ды":982,"мен":983,"##об":984,"##ного":985,"##тер":986,"##про":987,"он":988,"##ться":989,"##ят":990,"##ез":991,"На":992,"##каза":993,"##ство":994,"мы":995,"##сле":996,"или":997,"##ров":998,"есть":999,"ин":1000,"которы":1001,"##ос":1002,"пра":1003,"##ба":1004,"пере":1005,"ты":1006,"если":1007,"ве":1008,"##зы":1009,"вс":1010,"дру":1011,"рас":1012,"жи":1013,"##ной":1014,"че":1015,"его":1016,"##ния":1017,"##гра":1018,"Но":1019,"##ска":1020,"меня":1021,"##лся":1022,"##тель":1023,"боль":1024,"ну":1025,"##гу":1026,"##тся":1027,"##нима":1028,"##ции":1029,"##пу":1030,"только":1031,"##ние":1032,"##ему":1033,"уже":1034,"было":1035,"нет":1036,"оч":1037,"##ным":1038,"##нов":1039,"пер":1040,"##ков":1041,"##00":1042,"##лы":1043,"Да":1044,"су":1045,"Это":1046,"##тельно":1047,"##ха":1048,"кон":1049,"ку":1050,"ру":1051,"Во":1052,"рабо":1053,"##су":1054,"##ву":1055,"##том":1056,"##пра":1057,"ис":1058,"##зу":1059,"##он":1060,"ча":1061,"пи":1062,"##бу":1063,"они":1064,"##ор":1065,"##er":1066,"Не":1067,"##ете":1068,"там":1069,"просто":1070,"##ща":1071,"##ца":1072,"##вля":1073,"будет":1074,"##ком":1075,"##чески":1076,"##дь":1077,"ком":1078,"пред":1079,"##бя":1080,"##тов":1081,"##ан":1082,"врем":1083,"##ран":1084,"##ходи":1085,"мне":1086,"когда":1087,"можно":1088,"##лось":1089,"##осси":1090,"дол":1091,"им":1092,"##сы":1093,"очень":1094,"воз":1095,"##мот":1096,"вот":1097,"##лись":1098,"##фи":1099,"их":1100,"##тому":1101,"##рет":1102,"может":1103,"##рова":1104,"##ар":1105,"##це":1106,"##ства":1107,"ро":1108,"чтобы":1109,"##ное":1110,"##ную":1111,"слу":1112,"еще":1113,"##ром":1114,"##лове":1115,"##кра":1116,"само":1117,"чем":1118,"гово":1119,"ду":1120,"даже":1121,"##пер":1122,"пу":1123,"дела":1124,"##лен":1125,"##ющи":1126,"был":1127,"полу":1128,"после":1129,"эти":1130,"##дела":1131,"##ot":1132,"Вы":1133,"##ция":1134,"таки":1135,"##зна":1136,"##шо":1137,"оста":1138,"без":1139,"стра":1140,"сло":1141,"##стви":1142,"##вой":1143,"одно":1144,"лет":1145,"##при":1146,"##ются":1147,"челове":1148,"##рой":1149,"Ну":1150,"она":1151,"##кого":1152,"кто":1153,"оп":1154,"##лей":1155,"##сно":1156,"ба":1157,"Росси":1158,"нас":1159,"##кая":1160,"##йте":1161,"Ко":1162,"фи":1163,"##дин":1164,"пла":1165,"ско":1166,"##сту":1167,"##сте":1168,"поч":1169,"##рти":1170,"##уч":1171,"быть":1172,").":1173,"##ена":1174,"##лем":1175,"То":1176,"где":1177,"ле":1178,"##кти":1179,"За":1180,"##вто":1181,"##тя":1182,"ди":1183,"##зыва":1184,"##обще":1185,"этом":1186,"тоже":1187,"Если":1188,"=\"":1189,"Про":1190,"му":1191,"чи":1192,"##ешь":1193,"всё":1194,"прои":1195,"вер":1196,"##ственно":1197,"qu":1198,"надо":1199,"пол":1200,"20":1201,"##лее":1202,"quot":1203,"##час":1204,"интер":1205,"том":1206,"##чита":1207,"##дер":1208,"##ейчас":1209,"время":1210,"кра":1211,"##кое":1212,"##лась":1213,"##жен":1214,"которые":1215,"тем":1216,"Ка":1217,"сдела":1218,"##нь":1219,"##ству":1220,"##жда":1221,"Что":1222,"##ский":1223,"##ит":1224,"##дни":1225,"того":1226,"Мо":1227,"хоро":1228,"##нее":1229,"##стоя":1230,"мог":1231,"тут":1232,"\".":1233,"##тно":1234,"Как":1235,"свои":1236,"каж":1237,"##чего":1238,"##ально":1239,"##кто":1240,"##ными":1241,"##клю":1242,"больше":1243,"##вл":1244,"обра":1245,"##ета":1246,"##in":1247,"работа":1248,"##цы":1249,"этого":1250,"##ней":1251,"##вя":1252,"гла":1253,"случа":1254,"буду":1255,"##ном":1256,"##аль":1257,"поня":1258,"чу":1259,"##нии":1260,"ту":1261,"##жу":1262,"говори":1263,"вообще":1264,"##вали":1265,"##стро":1266,"сказа":1267,"##сов":1268,"##пол":1269,"##зво":1270,"При":1271,"Так":1272,"##сло":1273,"##кры":1274,"10":1275,"##вая":1276,"##пы":1277,"много":1278,"##вый":1279,"##есто":1280,"##кт":1281,"##мет":1282,"бе":1283,"вз":1284,"##вые":1285,"##вает":1286,"##an":1287,"##on":1288,"##писа":1289,"кла":1290,"##дей":1291,"спо":1292,"##чу":1293,"гра":1294,"##ять":1295,"тех":1296,"##кие":1297,"сов":1298,"##дя":1299,"##ской":1300,"Ва":1301,"жиз":1302,"##ин":1303,"вопро":1304,"име":1305,"##можно":1306,"была":1307,"##вал":1308,"день":1309,"##нечно":1310,"##тра":1311,"вас":1312,"##ник":1313,"Со":1314,"авто":1315,"дума":1316,"##щё":1317,"который":1318,"вам":1319,"##дар":1320,"иг":1321,"##ении":1322,"##дел":1323,"##она":1324,"луч":1325,"себя":1326,"##стра":1327,"ки":1328,"были":1329,"##at":1330,"Хо":1331,"##ствен":1332,"помо":1333,"##ких":1334,"##чем":1335,"голо":1336,"Вот":1337,"сейчас":1338,"##смот":1339,"них":1340,"##жд":1341,"сра":1342,"##вить":1343,"##дите":1344,"##соб":1345,"##логи":1346,"ло":1347,"сер":1348,"##гла":1349,"пока":1350,"),":1351,"##ника":1352,"##сты":1353,"фо":1354,"поли":1355,"нача":1356,"понима":1357,"##бра":1358,"##or":1359,"друго":1360,"потому":1361,"##вых":1362,"##бира":1363,"##ar":1364,"##чь":1365,"сле":1366,"нужно":1367,"га":1368,"##тив":1369,"##ского":1370,"##бой":1371,"ничего":1372,"##шу":1373,"интерес":1374,"проб":1375,"Ты":1376,"более":1377,"ее":1378,"##хи":1379,"##ены":1380,"##ред":1381,"##зова":1382,"всего":1383,"##рт":1384,"##лет":1385,"##кс":1386,"этот":1387,"##ов":1388,"ещё":1389,"Ра":1390,"\">":1391,"##вши":1392,"##фор":1393,"##нут":1394,"##ению":1395,"##доб":1396,"це":1397,"##род":1398,"19":1399,"##рен":1400,"\",":1401,"##торы":1402,"объ":1403,"года":1404,"##ге":1405,"##став":1406,"##ить":1407,"дей":1408,"други":1409,"##цию":1410,"пло":1411,"##en":1412,"России":1413,"##гля":1414,"##шей":1415,"##ёт":1416,"##юсь":1417,"##лли":1418,"##ваться":1419,"##поль":1420,"дет":1421,"##нет":1422,"Ни":1423,"потом":1424,"тебя":1425,"один":1426,"##ками":1427,"Бо":1428,"Он":1429,"##дят":1430,"..":1431,"почему":1432,"прави":1433,"Та":1434,"##дом":1435,"бес":1436,"всех":1437,"него":1438,"##стью":1439,"##пла":1440,"##ск":1441,"##ских":1442,"зако":1443,"##ал":1444,"##ол":1445,"##кла":1446,"такой":1447,"##ел":1448,"доро":1449,"проблем":1450,"сторо":1451,"##перь":1452,"##ерез":1453,"пр":1454,"##ом":1455,"##ден":1456,"##реть":1457,"исто":1458,"Ма":1459,"##лом":1460,"##рии":1461,"##ений":1462,"##вое":1463,"##ники":1464,"вес":1465,"##вают":1466,"##пример":1467,"Все":1468,"получи":1469,"ла":1470,"конечно":1471,"##стре":1472,"##ские":1473,"себе":1474,"именно":1475,"##сси":1476,"##чет":1477,"##ём":1478,"##ением":1479,"##спо":1480,"ти":1481,"вла":1482,"этой":1483,"Мы":1484,"##мента":1485,"От":1486,"счита":1487,"##чки":1488,"##сем":1489,"re":1490,"##рма":1491,"знаю":1492,"ника":1493,"##al":1494,"Нет":1495,"ска":1496,"##мент":1497,"##ках":1498,"виде":1499,"##ню":1500,"##дить":1501,"ор":1502,"##бли":1503,"##ат":1504,"##ний":1505,"##ил":1506,"##десь":1507,"##тор":1508,"##сла":1509,"##ед":1510,"какой":1511,"##вого":1512,"##сколько":1513,"кру":1514,"тер":1515,"##фе":1516,"нам":1517,"##от":1518,"##ой":1519,"##ик":1520,"исполь":1521,"##чит":1522,"##дна":1523,"##ии":1524,"##un":1525,"людей":1526,"##ровать":1527,"##ене":1528,"##дов":1529,"отно":1530,".-":1531,"соб":1532,"через":1533,"##пре":1534,"##этому":1535,"человек":1536,"##рави":1537,"До":1538,"##ху":1539,"##ев":1540,"поло":1541,"спе":1542,"##емо":1543,"##ях":1544,"##ru":1545,"##вед":1546,"люди":1547,"##гово":1548,"возможно":1549,"ответ":1550,"##емы":1551,"##стно":1552,"##льный":1553,"лучше":1554,"201":1555,"##__":1556,"смот":1557,"##ман":1558,"вся":1559,"##))":1560,"##кий":1561,"##яс":1562,"##йти":1563,"нем":1564,"##ам":1565,"##вания":1566,"##зда":1567,"##им":1568,"фото":1569,"##ления":1570,"тебе":1571,"##ий":1572,"игра":1573,"год":1574,"##ек":1575,"Пу":1576,"##ия":1577,"##роде":1578,"##ич":1579,"##чина":1580,"##ив":1581,"чего":1582,"всегда":1583,"##его":1584,"обо":1585,"действи":1586,"тра":1587,"##re":1588,"долж":1589,"##лов":1590,"гру":1591,"##нно":1592,"спа":1593,"##тери":1594,"Са":1595,"##it":1596,"тре":1597,"##he":1598,"##виа":1599,"##нуть":1600,"отли":1601,"кре":1602,"ему":1603,"выбо":1604,"##рю":1605,"##жение":1606,"##ников":1607,"##рая":1608,"могу":1609,"##st":1610,"##ходит":1611,"##дит":1612,"прав":1613,"##ья":1614,"##тин":1615,"##ент":1616,"два":1617,"тогда":1618,"##ью":1619,"##шение":1620,"##тия":1621,"##ую":1622,"##вод":1623,"##ема":1624,"##зя":1625,"##грам":1626,"##ших":1627,"будут":1628,"##ставля":1629,"такое":1630,"случае":1631,"би":1632,"здесь":1633,"делать":1634,"##шки":1635,"##ого":1636,"##ая":1637,"##ис":1638,"маши":1639,"##слу":1640,"##лек":1641,"всем":1642,"хорошо":1643,"##ель":1644,"самы":1645,"##их":1646,"пы":1647,"Те":1648,"##кан":1649,"##стве":1650,"тру":1651,"пар":1652,"дело":1653,"дан":1654,"##ская":1655,"##теля":1656,"обы":1657,"##нд":1658,"##льта":1659,"дви":1660,"теперь":1661,"##ие":1662,"свя":1663,"##сибо":1664,"##льше":1665,"##вра":1666,"».":1667,"##жду":1668,"##кую":1669,"##еха":1670,"##спе":1671,"сист":1672,"рус":1673,"##жения":1674,"смо":1675,"##будь":1676,"могут":1677,"##rue":1678,"##вается":1679,"вой":1680,"##дели":1681,"##рь":1682,"доста":1683,"##лез":1684,"##мери":1685,"##мни":1686,"кро":1687,"например":1688,"##ряд":1689,"вопрос":1690,"место":1691,"нау":1692,"##ig":1693,"##цев":1694,"##туры":1695,"##дня":1696,"##id":1697,"true":1698,"уби":1699,"ref":1700,"##стати":1701,"##цу":1702,"сами":1703,"комп":1704,"ок":1705,"##ир":1706,"пря":1707,"ху":1708,"//":1709,"##ступ":1710,"больши":1711,"ан":1712,"##али":1713,"неко":1714,"15":1715,"фак":1716,"сам":1717,"ос":1718,"парти":1719,"##вание":1720,"##шел":1721,"нибудь":1722,"##ур":1723,"Из":1724,"ар":1725,"пе":1726,"её":1727,"##льные":1728,"##тели":1729,"фор":1730,"осно":1731,"##нова":1732,"##дать":1733,"##точно":1734,"##три":1735,"##сс":1736,"пример":1737,"Мне":1738,"##цо":1739,"##шего":1740,"##пло":1741,"##вом":1742,"либо":1743,"##чный":1744,"росси":1745,"сделать":1746,"тво":1747,"##щей":1748,"##le":1749,"эта":1750,"##мина":1751,"теле":1752,"##из":1753,"##чение":1754,"клавиа":1755,"Они":1756,"жизни":1757,"произво":1758,"пор":1759,"высо":1760,"ведь":1761,"получа":1762,"вра":1763,"мно":1764,"##тура":1765,"##лага":1766,"свою":1767,"##жать":1768,"##деть":1769,"##ок":1770,"иде":1771,"над":1772,"три":1773,"любо":1774,"##пера":1775,"##дума":1776,"##щем":1777,"##om":1778,"несколько":1779,"поль":1780,"##вым":1781,"##цион":1782,"##ic":1783,"хотя":1784,"##зе":1785,"##ист":1786,"нико":1787,"Ми":1788,"##туа":1789,"##вро":1790,"кар":1791,"стоит":1792,"##еры":1793,"созда":1794,"чита":1795,"##шения":1796,"##ван":1797,"##ление":1798,"##рабо":1799,"уда":1800,"ге":1801,"##ети":1802,"написа":1803,"##шая":1804,"##рия":1805,"##дол":1806,"кор":1807,"которо":1808,"совсем":1809,"орга":1810,"##!!":1811,"норма":1812,"##льных":1813,"##ности":1814,"##собенно":1815,"##чка":1816,"##фо":1817,":)":1818,"ха":1819,"суще":1820,"обла":1821,"такие":1822,"##щего":1823,"##кро":1824,"##ход":1825,"госу":1826,"##краи":1827,"##номи":1828,"мой":1829,"самом":1830,"##рав":1831,"посмот":1832,"##мени":1833,"ци":1834,"##мой":1835,"против":1836,"милли":1837,"фа":1838,"вто":1839,"сразу":1840,"##свет":1841,"специ":1842,"эко":1843,"##чество":1844,"эту":1845,"времени":1846,"полити":1847,"##блю":1848,"##чен":1849,"государ":1850,"##стави":1851,"##тро":1852,"момент":1853,"##ери":1854,"другой":1855,"##телей":1856,"филь":1857,"##рода":1858,"кри":1859,"вос":1860,"##шли":1861,"между":1862,"##цен":1863,"##вле":1864,"##воз":1865,"бра":1866,"занима":1867,"##лаго":1868,"точно":1869,"##ющих":1870,"Или":1871,"опре":1872,"##el":1873,"сказать":1874,"году":1875,"видео":1876,"уж":1877,"тот":1878,"сем":1879,"жизнь":1880,"##гли":1881,"##шло":1882,"##вести":1883,"##нить":1884,"стро":1885,"Ро":1886,"##der":1887,"расска":1888,"##шка":1889,"уров":1890,"##нк":1891,"##ток":1892,"»,":1893,"позво":1894,"уча":1895,"##ким":1896,"##чить":1897,"бли":1898,"##нок":1899,"##енной":1900,"которая":1901,"Ре":1902,"##обра":1903,"##ваю":1904,"кого":1905,"мас":1906,"стол":1907,"##еть":1908,"тя":1909,"##прав":1910,"##вное":1911,"##нови":1912,"##зм":1913,"##тить":1914,"##рот":1915,"смы":1916,"##ас":1917,"ша":1918,"##оз":1919,"##ском":1920,"##ключа":1921,"##вари":1922,"##ющий":1923,"##жем":1924,"согла":1925,"скоро":1926,"##нача":1927,"деньги":1928,"##рую":1929,"##той":1930,"весь":1931,"говоря":1932,"кос":1933,"##ческая":1934,"реши":1935,"##риан":1936,"##лки":1937,"##бор":1938,"чер":1939,"##вай":1940,"слова":1941,"ней":1942,"##чку":1943,"шко":1944,"этих":1945,"##нный":1946,"мене":1947,"человека":1948,"никто":1949,"Украи":1950,"пыта":1951,"##дут":1952,"##hun":1953,"##зульта":1954,"##ческие":1955,"сви":1956,"ры":1957,"откры":1958,"##льного":1959,"прода":1960,"##стов":1961,"мень":1962,"глу":1963,"экс":1964,"кажется":1965,"свой":1966,"должен":1967,"##дем":1968,"деле":1969,"результа":1970,"##ющие":1971,"спи":1972,"##форма":1973,"нуж":1974,"##СС":1975,"какие":1976,"##ид":1977,"##уд":1978,"мало":1979,"одна":1980,"своей":1981,"##ША":1982,"12":1983,"почти":1984,"хоть":1985,"лично":1986,"Поч":1987,"##ад":1988,"стать":1989,"##дой":1990,"Для":1991,"ситуа":1992,"значит":1993,"ак":1994,"##гре":1995,"зая":1996,"##рон":1997,"кни":1998,"Го":1999,"##нию":2000,"##as":2001,"этим":2002,"США":2003,"поя":2004,"расс":2005,"##ческой":2006,"руб":2007,"##стру":2008,"##зад":2009,"моло":2010,"##ht":2011,"люби":2012,"лишь":2013,"жен":2014,"пот":2015,"##купа":2016,"##пусти":2017,"##сом":2018,"практи":2019,"совер":2020,"Ве":2021,"##руг":2022,"равно":2023,"##лон":2024,"изве":2025,"##ПР":2026,"меся":2027,"око":2028,"начина":2029,"назад":2030,"Ви":2031,"сред":2032,"Она":2033,"##ro":2034,"Ста":2035,"##нять":2036,"должны":2037,"обще":2038,"##бер":2039,"##am":2040,"програм":2041,"##лект":2042,"##льной":2043,"хочу":2044,"перед":2045,"Па":2046,"##шать":2047,"следу":2048,"ог":2049,"##щая":2050,"достаточно":2051,"некоторы":2052,"похо":2053,"очере":2054,"явля":2055,"##прави":2056,"##щения":2057,"##th":2058,"многи":2059,"св":2060,"##us":2061,"стороны":2062,"реально":2063,"##сп":2064,"также":2065,"##тки":2066,"сту":2067,"попа":2068,"думаю":2069,"##вление":2070,"гу":2071,"дома":2072,"##кам":2073,"уста":2074,"##яза":2075,"##чные":2076,"##дый":2077,"ква":2078,"плохо":2079,"полно":2080,"сли":2081,"никогда":2082,"##ность":2083,"Спа":2084,"##виси":2085,"послед":2086,"Под":2087,"мн":2088,"действительно":2089,"Ли":2090,"##чения":2091,"кол":2092,"хоте":2093,"ум":2094,"##ложи":2095,"##еты":2096,"хва":2097,"##нем":2098,"вариан":2099,"##il":2100,"сколько":2101,"##дной":2102,"##ol":2103,"##чная":2104,"##нер":2105,"показа":2106,"Де":2107,"##ири":2108,"гражда":2109,"##ать":2110,"##вую":2111,"совет":2112,"прово":2113,"##льное":2114,"упо":2115,"##ческих":2116,"поэтому":2117,"писа":2118,"##рить":2119,"наде":2120,"##ствует":2121,"##правля":2122,"##крет":2123,"Почему":2124,"сказал":2125,"вне":2126,"##твер":2127,"Может":2128,"вроде":2129,"##стран":2130,"##ён":2131,"##вления":2132,"сы":2133,"],":2134,"##рован":2135,"##es":2136,"id":2137,"РФ":2138,"подсвет":2139,"##циона":2140,"сего":2141,"##ква":2142,"ги":2143,"##рами":2144,"Когда":2145,"##сл":2146,"##лин":2147,"ради":2148,"наз":2149,"органи":2150,"навер":2151,"Ин":2152,"##ческий":2153,"##вайте":2154,"##оп":2155,"##ший":2156,"большо":2157,"сме":2158,"100":2159,"подо":2160,"Хоро":2161,"11":2162,"##ac":2163,"дву":2164,"таких":2165,"гар":2166,"лег":2167,"##hunder":2168,"30":2169,"проц":2170,"##графи":2171,"Thunder":2172,"осо":2173,"которых":2174,"##стей":2175,"##X3":2176,"экономи":2177,"сти":2178,"ThunderX3":2179,"непо":2180,"благо":2181,"понимаю":2182,"имеет":2183,"свет":2184,"##дина":2185,"##полне":2186,"меньше":2187,"##щение":2188,"##пуска":2189,"##ad":2190,"##is":2191,"особенно":2192,"матери":2193,"мак":2194,"зада":2195,"##нием":2196,"##сут":2197,"проис":2198,"проблема":2199,"дер":2200,"##жал":2201,"##мя":2202,"ды":2203,"##рта":2204,"поддер":2205,"уди":2206,"которой":2207,"сегодня":2208,"Только":2209,"называ":2210,"офи":2211,"##ed":2212,"удоб":2213,"усло":2214,"куда":2215,"##нци":2216,"##ента":2217,"##дра":2218,"части":2219,"Ки":2220,"##него":2221,"других":2222,"##рее":2223,"##бро":2224,"##льная":2225,"выгля":2226,"оказа":2227,"Мос":2228,"##строй":2229,"пси":2230,"наш":2231,"##мерикан":2232,"коли":2233,"##уб":2234,"##раз":2235,"##ружи":2236,"ри":2237,"жела":2238,"##сса":2239,"##щий":2240,"200":2241,"Спасибо":2242,"##ight":2243,"гото":2244,"##луй":2245,"выше":2246,"своих":2247,"мои":2248,"##следо":2249,"##ur":2250,"гей":2251,"обяза":2252,"отде":2253,"50":2254,"россий":2255,"уви":2256,"недо":2257,"##вной":2258,"##ами":2259,"одного":2260,"ад":2261,"давно":2262,"##ждения":2263,"собира":2264,"деся":2265,"Россия":2266,"ря":2267,"##ах":2268,"информа":2269,"Есть":2270,"тор":2271,"объяс":2272,"успе":2273,"бан":2274,"##чие":2275,"нрави":2276,"тыся":2277,"пово":2278,"кли":2279,"##ее":2280,"закон":2281,"часто":2282,"##енные":2283,"разви":2284,"Ду":2285,"право":2286,"оно":2287,"##лень":2288,"компа":2289,"##льзя":2290,"учи":2291,"##фон":2292,"продол":2293,"##рах":2294,"чув":2295,"поста":2296,"##жалуй":2297,"##пить":2298,"такая":2299,"##вели":2300,"##щее":2301,"немного":2302,"зо":2303,"##аз":2304,"места":2305,"##ффе":2306,"провер":2307,"гарни":2308,"зем":2309,"эт":2310,"##ССР":2311,"##пр":2312,"стран":2313,"##зом":2314,"ваш":2315,"часть":2316,"сл":2317,"##лия":2318,"мину":2319,"одной":2320,"внима":2321,"соврем":2322,"обычно":2323,"ним":2324,"##ое":2325,"элект":2326,"призна":2327,"зачем":2328,"Просто":2329,"пой":2330,"##рей":2331,"повер":2332,"вполне":2333,"##куда":2334,"##лн":2335,"##казыва":2336,"##чных":2337,"##роб":2338,"пара":2339,"##ница":2340,"цвет":2341,"##нали":2342,"Бу":2343,"##нец":2344,"##вез":2345,"сот":2346,"##вала":2347,"срав":2348,"укра":2349,"##шенно":2350,"прекра":2351,"ино":2352,"СССР":2353,"язы":2354,"подоб":2355,"способ":2356,"сла":2357,"карти":2358,"уго":2359,"типа":2360,"пода":2361,"мони":2362,"##гов":2363,"запа":2364,";&":2365,"##рак":2366,"##сить":2367,"##ган":2368,"уни":2369,"туда":2370,"еди":2371,"см":2372,"говорит":2373,"Поэтому":2374,"the":2375,"##ствие":2376,"##щу":2377,"##вный":2378,"внут":2379,"попро":2380,"##лок":2381,"ссы":2382,"обе":2383,"##хва":2384,"дене":2385,"тро":2386,"Си":2387,"##ций":2388,"##цией":2389,"##ским":2390,"рак":2391,"ЕР":2392,"##шком":2393,"##--":2394,"##ing":2395,"каждый":2396,"дово":2397,"забы":2398,"вме":2399,"режи":2400,"женщи":2401,"##нологи":2402,"##рит":2403,"##ленно":2404,"Ла":2405,"аб":2406,"##ните":2407,"##ov":2408,"чуть":2409,"Там":2410,"прият":2411,"##тан":2412,"##____":2413,"заме":2414,"состоя":2415,"свер":2416,"##щих":2417,"сре":2418,"##тие":2419,"такого":2420,"##пли":2421,"сте":2422,"##ум":2423,"сю":2424,"должно":2425,"понял":2426,"необ":2427,"##дко":2428,"##ерт":2429,"пос":2430,"свобо":2431,"##ям":2432,"опы":2433,"сильно":2434,"gt":2435,"##тые":2436,"##фа":2437,"##стер":2438,"све":2439,"Ку":2440,"узна":2441,"ули":2442,"американ":2443,"18":2444,"##рения":2445,"мире":2446,"защи":2447,"##ково":2448,"спра":2449,"можете":2450,"кстати":2451,"правда":2452,"##жо":2453,"##ваем":2454,"каче":2455,"##тами":2456,"исклю":2457,"оши":2458,"встре":2459,"##кус":2460,"нельзя":2461,"пост":2462,"##нения":2463,"прямо":2464,"##нул":2465,"интересно":2466,"тол":2467,"Кто":2468,"25":2469,"работы":2470,"кно":2471,"ей":2472,"Зна":2473,"##зиден":2474,"##ями":2475,"##пере":2476,"##тора":2477,"игро":2478,"##мов":2479,"##пута":2480,"Лю":2481,"побе":2482,"страны":2483,"сери":2484,"менее":2485,"##шен":2486,"покупа":2487,"увер":2488,"##чать":2489,"процес":2490,"##дает":2491,"##im":2492,"игры":2493,"кроме":2494,"##нах":2495,"##что":2496,"пару":2497,"мир":2498,"##шла":2499,"мя":2500,"##нес":2501,"месте":2502,"##лан":2503,"нравится":2504,"этому":2505,"неза":2506,"види":2507,"замет":2508,"груп":2509,"дальше":2510,"Ско":2511,"минут":2512,"слы":2513,"тому":2514,"##имо":2515,"находи":2516,"эффе":2517,"принци":2518,"##av":2519,"##или":2520,"##ляр":2521,"##et":2522,"##ляет":2523,"....":2524,"После":2525,"решение":2526,"мет":2527,"Хорошо":2528,"эк":2529,"##ёл":2530,"Бы":2531,"Даже":2532,"14":2533,"коммента":2534,"вели":2535,"##йн":2536,"##ch":2537,"##чат":2538,"##дель":2539,"Раз":2540,"##рко":2541,"насе":2542,"##мню":2543,"##ай":2544,"нее":2545,"##шно":2546,"##есь":2547,"##ющим":2548,"Вам":2549,"муж":2550,"##место":2551,"гор":2552,"##тят":2553,"настоя":2554,"малень":2555,"ск":2556,"##ял":2557,"##ых":2558,"##ктор":2559,"общем":2560,"##лый":2561,"предпо":2562,"##дро":2563,"##еме":2564,"мест":2565,"##нами":2566,"##ское":2567,"мини":2568,"##гру":2569,"кур":2570,"Моск":2571,"##тит":2572,"работать":2573,"неу":2574,"сим":2575,"##рите":2576,"уч":2577,"бро":2578,"##idth":2579,"##рам":2580,"власти":2581,"##ответ":2582,"##ческого":2583,"нео":2584,"денег":2585,"услови":2586,"работает":2587,"здо":2588,"Еди":2589,"смер":2590,"самое":2591,"одни":2592,"постоя":2593,"собственно":2594,"##тай":2595,"##дви":2596,"##шие":2597,"##ut":2598,"##ала":2599,";&#":2600,"ши":2601,"реб":2602,"##роят":2603,"##ые":2604,"всю":2605,"##тите":2606,"Потому":2607,"серь":2608,"##зин":2609,"Сейчас":2610,"од":2611,"##ян":2612,"необходи":2613,"##рел":2614,"##страи":2615,"Пер":2616,"таким":2617,"другие":2618,"двига":2619,"##чень":2620,"помощ":2621,"##держа":2622,"##шку":2623,"##чеви":2624,"##жешь":2625,"##моби":2626,"Ме":2627,"уг":2628,"опять":2629,"Хотя":2630,"##ством":2631,"детей":2632,"##ёр":2633,"##чей":2634,"истори":2635,"##зма":2636,"##скую":2637,"любой":2638,"двух":2639,"сама":2640,"лу":2641,"##ый":2642,"##рито":2643,"причи":2644,"использова":2645,"нару":2646,"цен":2647,"##рок":2648,"##дера":2649,"случай":2650,"he":2651,"часов":2652,"##ступа":2653,"кварти":2654,"ново":2655,"является":2656,"кому":2657,"мар":2658,"##лит":2659,"Су":2660,"проти":2661,"##шает":2662,"00":2663,"##лют":2664,"Жири":2665,"какая":2666,"##ним":2667,"красо":2668,"##вном":2669,"##тельства":2670,"рублей":2671,"##бло":2672,"насто":2673,"##нав":2674,"##ie":2675,"краси":2676,"стан":2677,"##сколь":2678,"##чик":2679,"##ье":2680,"##пери":2681,"##чное":2682,"##шим":2683,"##дил":2684,"##жки":2685,"своим":2686,"##чной":2687,"огром":2688,"поме":2689,"своего":2690,"сп":2691,"найти":2692,"##онов":2693,"вместе":2694,"вол":2695,"скорее":2696,"##ПРФ":2697,"друг":2698,"соци":2699,"приходи":2700,"##чо":2701,"большин":2702,"##зации":2703,"совершенно":2704,"##тый":2705,"КПРФ":2706,"##ус":2707,"технологи":2708,"тран":2709,"##ion":2710,"край":2711,"первый":2712,"физи":2713,"##лять":2714,"поз":2715,"##пита":2716,"##гули":2717,"моз":2718,"микро":2719,"жа":2720,"говорить":2721,"##кли":2722,"##дал":2723,"террито":2724,"##помни":2725,"##зывать":2726,"пои":2727,"##ходят":2728,"##нки":2729,"доба":2730,"##енси":2731,"##тина":2732,"##ктивно":2733,"фу":2734,"##тера":2735,"могли":2736,"хочет":2737,"##них":2738,"##грани":2739,"идет":2740,"##еспе":2741,"##мом":2742,"##тах":2743,"##рат":2744,"##вили":2745,"говорят":2746,"спро":2747,"##20":2748,"привы":2749,"##рий":2750,"##вил":2751,"представля":2752,"небо":2753,"##сили":2754,"поряд":2755,"##пки":2756,"##чек":2757,"котором":2758,"смотреть":2759,"около":2760,"дере":2761,"долго":2762,"##кон":2763,"распо":2764,"кры":2765,"шту":2766,"##ктив":2767,"##рует":2768,"ал":2769,"##терес":2770,"##бот":2771,"город":2772,"##ьют":2773,"стал":2774,"глаза":2775,"слишком":2776,"Ба":2777,"##щие":2778,"##еп":2779,"Ле":2780,"партии":2781,"Мар":2782,"Пи":2783,"##ходя":2784,"практически":2785,"##os":2786,"##ставить":2787,"граждан":2788,"##сен":2789,"примерно":2790,"наблю":2791,"вместо":2792,"мыши":2793,"##нят":2794,"невоз":2795,"сооб":2796,"##ун":2797,"##==":2798,"##ьте":2799,"##ым":2800,"))":2801,"##жите":2802,"##там":2803,"##дали":2804,"##енное":2805,"##ску":2806,"собой":2807,"Об":2808,"Кры":2809,"правильно":2810,"##nd":2811,"космо":2812,"отве":2813,"ито":2814,"##енного":2815,"проду":2816,"##ницы":2817,"##леко":2818,"использо":2819,"пон":2820,"##тий":2821,"##ag":2822,"рес":2823,"доказа":2824,"##полни":2825,"##стой":2826,"##дка":2827,"ше":2828,"мощ":2829,"конкрет":2830,"проблемы":2831,"Евро":2832,"знает":2833,"народ":2834,"\"?":2835,"Ан":2836,"##ждение":2837,"стране":2838,"безо":2839,"ид":2840,"потер":2841,"понятно":2842,"коман":2843,"##реб":2844,"шу":2845,"взгля":2846,"жить":2847,"40":2848,"сложно":2849,"##ik":2850,"Им":2851,"##вший":2852,"##воль":2853,"##ствия":2854,"##оне":2855,"играть":2856,"##лав":2857,"важно":2858,"плю":2859,"спасибо":2860,"##аб":2861,"ав":2862,"уме":2863,"соответ":2864,"##меня":2865,"width":2866,"height":2867,"!!!":2868,"##od":2869,"##ir":2870,"##каз":2871,"Воз":2872,"запи":2873,"##тон":2874,"работу":2875,"##нди":2876,"Че":2877,"состав":2878,"автомоби":2879,"##ственный":2880,"##еш":2881,"которого":2882,"украин":2883,"##жалуйста":2884,"разные":2885,"выра":2886,"##нал":2887,"быстро":2888,"##ина":2889,"##пасно":2890,"энер":2891,"появи":2892,"иска":2893,"должна":2894,"деше":2895,"##дного":2896,"##пара":2897,"##хра":2898,"каждо":2899,"опера":2900,"##лить":2901,"большой":2902,"##руют":2903,"##чного":2904,"##дж":2905,"##льным":2906,"##ньше":2907,"тяже":2908,"мага":2909,"000":2910,"коро":2911,"образова":2912,"рай":2913,"Пере":2914,"Кстати":2915,"##дитель":2916,"города":2917,"логи":2918,"относи":2919,"реги":2920,"разре":2921,"фотографи":2922,"##думы":2923,"обеспе":2924,"##чер":2925,"##дили":2926,"##жит":2927,"противо":2928,"##ющей":2929,"зву":2930,"комму":2931,"##гры":2932,"##дете":2933,"##вших":2934,"##жении":2935,"диа":2936,"Одна":2937,"##читы":2938,"Еще":2939,"##лые":2940,"очеви":2941,"##ятся":2942,"##джет":2943,"евро":2944,"##тка":2945,"16":2946,"видел":2947,"настолько":2948,"раньше":2949,"##нам":2950,"##дки":2951,"##хов":2952,"Ру":2953,"##хода":2954,"##клады":2955,"##ваются":2956,"Вс":2957,"##).":2958,"##враща":2959,"##енных":2960,"образом":2961,"жив":2962,"обсу":2963,"стри":2964,"количество":2965,"посмотреть":2966,"непри":2967,"которую":2968,"столько":2969,"наверное":2970,"ап":2971,"##все":2972,"##шем":2973,"президен":2974,"зависи":2975,"вижу":2976,"попы":2977,"##шал":2978,"конце":2979,"первых":2980,"второй":2981,"довольно":2982,"##лены":2983,"ез":2984,"деву":2985,"демо":2986,"of":2987,"дня":2988,"комплек":2989,"проф":2990,"##лка":2991,"Ди":2992,"##менты":2993,"приня":2994,"##мое":2995,"Где":2996,"возможность":2997,"##вался":2998,"13":2999,"хи":3000,"##деля":3001,"друга":3002,"нач":3003,"##сит":3004,"знать":3005,"##чешь":3006,"##чает":3007,"использу":3008,"##сил":3009,"вашей":3010,"Гос":3011,"друз":3012,"бю":3013,"##док":3014,"##нка":3015,"живо":3016,"пропа":3017,"##ера":3018,"##ект":3019,"закры":3020,"Пре":3021,"##струк":3022,"Бе":3023,"убе":3024,"##дают":3025,"##есси":3026,"##брать":3027,"бер":3028,"##пил":3029,"##волю":3030,"##рту":3031,"возра":3032,"един":3033,"невозможно":3034,"##мах":3035,"##вар":3036,"беспо":3037,"##еб":3038,"60":3039,"разных":3040,"##наче":3041,"##тых":3042,"сай":3043,"##ставка":3044,"свое":3045,"мол":3046,"##рый":3047,"известно":3048,"той":3049,"##лог":3050,"##дио":3051,"##солют":3052,"##мум":3053,"хотел":3054,"##шься":3055,"Можно":3056,"сосе":3057,"полез":3058,"##ститу":3059,"##гой":3060,"Тут":3061,"столе":3062,"моей":3063,"снова":3064,"Очень":3065,"ува":3066,"##нг":3067,"##туру":3068,"две":3069,"##ствовать":3070,"доку":3071,"##так":3072,"описа":3073,"##ata":3074,"тысяч":3075,"меди":3076,"понрави":3077,"станови":3078,"вок":3079,"##ay":3080,"связа":3081,"знако":3082,"Теперь":3083,"най":3084,"##зов":3085,"подума":3086,"част":3087,"съ":3088,"удо":3089,"Жиринов":3090,"##аг":3091,"посте":3092,"##шую":3093,"##начала":3094,"##зывает":3095,"##мости":3096,"##нные":3097,"##фер":3098,"##ске":3099,"тек":3100,"##лета":3101,"##енный":3102,"раза":3103,"Кон":3104,"##ешься":3105,"##емон":3106,"##сона":3107,"##стри":3108,"вд":3109,"##тать":3110,"происходит":3111,"##жей":3112,"##рос":3113,"голосо":3114,"##тельство":3115,"сих":3116,"##ТО":3117,"##мена":3118,"утвер":3119,"тон":3120,"Например":3121,"##ётся":3122,"отсут":3123,"##жде":3124,"##пей":3125,"Росс":3126,"пользу":3127,"##шек":3128,"90":3129,"понять":3130,"никак":3131,"настро":3132,"Вла":3133,"преступ":3134,"##пад":3135,"перес":3136,"конку":3137,"Алек":3138,"##кова":3139,"наши":3140,"самый":3141,"##чется":3142,"пиш":3143,"##бить":3144,"моему":3145,"помню":3146,"повто":3147,"##гии":3148,"некоторых":3149,"##альные":3150,"Прав":3151,"стали":3152,"##над":3153,"монитор":3154,"принима":3155,"##тельный":3156,"##езде":3157,"##чную":3158,"права":3159,"исследо":3160,"полностью":3161,"##лова":3162,"которое":3163,"контро":3164,"##цов":3165,"##дова":3166,"Га":3167,"##чительно":3168,"стало":3169,"Дума":3170,"##ио":3171,"?-":3172,"17":3173,"##сков":3174,"вариант":3175,"Лу":3176,"##ent":3177,"##гом":3178,"сделал":3179,"биз":3180,"##баты":3181,"##ссо":3182,"пози":3183,"оби":3184,"пора":3185,"миллионов":3186,"##гать":3187,"убий":3188,"собы":3189,"отказа":3190,"мнение":3191,"##iv":3192,"##жной":3193,"далеко":3194,"получается":3195,"мето":3196,"замеча":3197,"##руп":3198,"куль":3199,"объе":3200,"##говор":3201,"дво":3202,"##врем":3203,"in":3204,"##тает":3205,"НА":3206,"##лами":3207,"зап":3208,"которым":3209,"верну":3210,"##шее":3211,"взя":3212,"##дну":3213,"произо":3214,"##стить":3215,"##зить":3216,"##бера":3217,"##ub":3218,"##помина":3219,"##зер":3220,"чтоб":3221,"##лё":3222,"##ap":3223,"ана":3224,"##цени":3225,"Всё":3226,"AI":3227,"##жить":3228,"##того":3229,"##лер":3230,"психо":3231,"##вес":3232,"разу":3233,"работ":3234,"войны":3235,"##дний":3236,"техни":3237,"моя":3238,"##ющая":3239,"каза":3240,"дороги":3241,"знаете":3242,"извест":3243,"предо":3244,"Пока":3245,"##вок":3246,"включа":3247,"клавиатуры":3248,"##тур":3249,"Правда":3250,"##чера":3251,"простран":3252,"шо":3253,"наших":3254,"##80":3255,"пусть":3256,"##тая":3257,"цент":3258,"какого":3259,"производ":3260,"иногда":3261,"##ровая":3262,"##тии":3263,"##анта":3264,"абсолют":3265,"напра":3266,"прид":3267,"##кси":3268,"нашей":3269,"Тогда":3270,"##йтесь":3271,"серьез":3272,"##ец":3273,"исп":3274,"неболь":3275,"##ссе":3276,"Гер":3277,"окру":3278,"определ":3279,"нормально":3280,"никакого":3281,"сни":3282,"меха":3283,"вопросы":3284,"##уз":3285,"рассказа":3286,"##лой":3287,"впере":3288,"ограни":3289,"делает":3290,"предлага":3291,"##стан":3292,"##дешь":3293,"забо":3294,"арми":3295,"##лых":3296,"##ила":3297,"мной":3298,"нена":3299,"гарнитуры":3300,"##лад":3301,"##вшие":3302,"##есс":3303,"##нение":3304,"##??":3305,"слово":3306,"##влека":3307,"##мера":3308,"кило":3309,"##рудни":3310,"AIR":3311,"многие":3312,"##ул":3313,"?\"":3314,"##готов":3315,"Се":3316,"data":3317,"пенси":3318,"какое":3319,"попу":3320,"##жный":3321,"##ана":3322,"##выми":3323,"##служи":3324,"измени":3325,"ожи":3326,"##вного":3327,"##ант":3328,"Вас":3329,"анти":3330,"##тных":3331,"ощу":3332,"to":3333,"сообщ":3334,"нужен":3335,"##тельные":3336,"проще":3337,"никаких":3338,"ны":3339,"##нан":3340,"план":3341,"Путин":3342,"неда":3343,"всей":3344,"Конечно":3345,"рели":3346,"##чным":3347,"начала":3348,"дли":3349,"обеща":3350,"Ти":3351,"##лку":3352,"199":3353,"истории":3354,"##ели":3355,"прин":3356,"##ими":3357,"##лена":3358,"##рд":3359,"участ":3360,"установ":3361,"силу":3362,"депута":3363,"##голо":3364,"Пар":3365,"##лас":3366,"форма":3367,"сол":3368,"##ился":3369,"Сер":3370,"мед":3371,"случи":3372,"использовать":3373,"знаешь":3374,"родите":3375,"вокруг":3376,"##сок":3377,"##ческое":3378,"##цей":3379,"вещи":3380,"особо":3381,"круп":3382,"км":3383,"##разу":3384,"оружи":3385,"##орт":3386,"сча":3387,"отношения":3388,"стен":3389,"специально":3390,"пров":3391,"прот":3392,"##вето":3393,"##рачи":3394,"##em":3395,"ошиб":3396,"сможет":3397,"постро":3398,"легко":3399,"##фици":3400,"##жды":3401,"вами":3402,"итоге":3403,".\"":3404,"##нус":3405,"##тельная":3406,"редко":3407,"речь":3408,"##раб":3409,"говорю":3410,"##мати":3411,"##жает":3412,"##вич":3413,"##буш":3414,"переда":3415,"одну":3416,"получ":3417,"##тный":3418,"ужа":3419,"зак":3420,"##ара":3421,"офици":3422,"##кар":3423,"##няя":3424,"шта":3425,"##ации":3426,"?!":3427,"сожал":3428,"говорил":3429,"##туре":3430,"##гами":3431,"каких":3432,"##раздо":3433,"##––":3434,"дает":3435,"##пон":3436,"##ики":3437,"##дии":3438,"наро":3439,"##бря":3440,"##кре":3441,"холо":3442,"вероят":3443,"##дами":3444,"##ух":3445,"##ологи":3446,"кино":3447,"мира":3448,"ль":3449,"##яз":3450,"факт":3451,"##лях":3452,"пожалуйста":3453,"##ится":3454,"счет":3455,"##чее":3456,"материа":3457,"Зем":3458,"##ины":3459,"расп":3460,"##инг":3461,"прод":3462,"нес":3463,"руки":3464,"нако":3465,"194":3466,"##ak":3467,"переста":3468,"заня":3469,"##тесь":3470,"довер":3471,"##ливо":3472,"##тельное":3473,"##ницу":3474,"сум":3475,"чет":3476,"##зд":3477,"ними":3478,"##зор":3479,"##стом":3480,"одина":3481,"##ровки":3482,"зара":3483,"##пря":3484,"##писы":3485,"зат":3486,"разрабо":3487,"сожалению":3488,"##хе":3489,"пес":3490,"##ow":3491,"основном":3492,"геро":3493,"станет":3494,"самые":3495,"колле":3496,"##пили":3497,"##скор":3498,"нов":3499,"##ходить":3500,"постоянно":3501,"поводу":3502,"электро":3503,"рядом":3504,"источ":3505,"##енная":3506,"зар":3507,"сюда":3508,"##ровали":3509,"буд":3510,"многих":3511,"##ьютер":3512,"жур":3513,"полови":3514,"##рал":3515,"комна":3516,"самого":3517,"пл":3518,"тео":3519,"неде":3520,"гейм":3521,"выбор":3522,"##тные":3523,"стре":3524,"##спорт":3525,"чём":3526,"крас":3527,"доб":3528,"дости":3529,"##зон":3530,"требу":3531,"делают":3532,"вторы":3533,"нужны":3534,"##вест":3535,"выво":3536,"##чок":3537,"##дах":3538,"фильм":3539,"##зии":3540,"ус":3541,"кабе":3542,"##гает":3543,"##публи":3544,"тр":3545,"долла":3546,"произ":3547,"Кра":3548,"ист":3549,"образ":3550,"людя":3551,"##um":3552,"##ьи":3553,"прошло":3554,"получить":3555,"##чества":3556,"будем":3557,"##щую":3558,"англи":3559,"большие":3560,"нужна":3561,"стар":3562,"##рети":3563,"становится":3564,"нали":3565,"Ст":3566,"##прия":3567,"поверх":3568,"месяц":3569,"##обо":3570,"ситуация":3571,"новый":3572,"встреча":3573,"близ":3574,"##руется":3575,"ори":3576,"ию":3577,"перио":3578,"##тили":3579,"род":3580,"публи":3581,"зрения":3582,"фе":3583,"национа":3584,"##ce":3585,"числе":3586,"рек":3587,"##сах":3588,"стала":3589,"ваши":3590,"Пр":3591,"Ал":3592,"st":3593,"возду":3594,"любого":3595,"Пред":3596,"##втра":3597,"цвета":3598,"##ab":3599,"продук":3600,"дней":3601,"разве":3602,"зарпла":3603,"хочется":3604,"беспла":3605,"##ук":3606,"##зать":3607,"гораздо":3608,"вдруг":3609,"треть":3610,"##ou":3611,"видно":3612,"хуже":3613,"вста":3614,"сотрудни":3615,"макси":3616,"##цами":3617,"зав":3618,"##шники":3619,"##емые":3620,"##гло":3621,"лиш":3622,"одним":3623,"##ющего":3624,"##вались":3625,"верси":3626,"##чке":3627,"цена":3628,"отре":3629,"дети":3630,"харак":3631,"коммуни":3632,")))":3633,"каждого":3634,"Дж":3635,"иначе":3636,"власть":3637,"общ":3638,"вид":3639,"поможет":3640,"##нных":3641,"##тное":3642,"бывает":3643,"точки":3644,"либера":3645,"##лож":3646,"Му":3647,"##ly":3648,"##лик":3649,"дом":3650,"другим":3651,"##стя":3652,"похоже":3653,"представи":3654,"пиз":3655,"##рим":3656,"находится":3657,"##пози":3658,"некоторые":3659,"подроб":3660,"ночь":3661,"##ора":3662,"указа":3663,"история":3664,"гря":3665,"##тым":3666,"Герма":3667,"##ровал":3668,"ам":3669,"##фт":3670,"##вре":3671,"Ха":3672,"мор":3673,"представ":3674,"бло":3675,"умер":3676,"##iew":3677,"##зация":3678,"система":3679,"проек":3680,"среди":3681,"стола":3682,"страш":3683,"области":3684,"хозя":3685,"##лете":3686,"измен":3687,"обязательно":3688,"##вобо":3689,"приш":3690,"двер":3691,"##рать":3692,"подтвер":3693,"вет":3694,"##тики":3695,"80":3696,"хочешь":3697,"Ком":3698,"##50":3699,"##печат":3700,"##еня":3701,"Путина":3702,"служ":3703,"##ждать":3704,"Зачем":3705,"перево":3706,"купить":3707,"наи":3708,"отра":3709,"китай":3710,"кам":3711,"дерев":3712,"##нули":3713,"прое":3714,"взять":3715,"требо":3716,"Соб":3717,"##чил":3718,"решил":3719,"разли":3720,"##лая":3721,"пя":3722,"Пет":3723,"сторону":3724,"сек":3725,"праз":3726,"стоя":3727,"##деква":3728,"уто":3729,"порядке":3730,"мат":3731,"кнопки":3732,"видимо":3733,"откуда":3734,"##ова":3735,"выпол":3736,"производите":3737,"уче":3738,"наход":3739,"##роп":3740,"дея":3741,"групп":3742,"##мини":3743,"площа":3744,"##даря":3745,"##тали":3746,"##тей":3747,"сверху":3748,"внимание":3749,"повы":3750,"##ником":3751,"##льную":3752,"поко":3753,"##чёт":3754,"##тил":3755,"нарко":3756,"бога":3757,"смысл":3758,"уровня":3759,"ост":3760,"косми":3761,"##мос":3762,"команд":3763,"Вообще":3764,"##НО":3765,"можешь":3766,"программи":3767,"##дания":3768,"pre":3769,"##матри":3770,"главный":3771,"Однако":3772,"##12":3773,"четы":3774,"##тен":3775,"##лам":3776,"оте":3777,"Его":3778,"ребен":3779,"##ческом":3780,"прош":3781,"бюджет":3782,"кресло":3783,"музы":3784,"Россию":3785,"системы":3786,"##мый":3787,"##ческую":3788,"##яв":3789,"механи":3790,"поддержи":3791,"гаран":3792,"разо":3793,"обна":3794,"Потом":3795,"снима":3796,"спраши":3797,"хотите":3798,";.":3799,"Пос":3800,"##мых":3801,"##емся":3802,"главное":3803,"зво":3804,"бума":3805,"циф":3806,"Гла":3807,"Надо":3808,"##енном":3809,"будете":3810,"специали":3811,"кле":3812,"уничто":3813,"выс":3814,"тему":3815,"ресур":3816,"##ика":3817,"##альный":3818,"лес":3819,"##рев":3820,"##форм":3821,"Влади":3822,"смог":3823,"серд":3824,"##жай":3825,"##держи":3826,"##жные":3827,"Украины":3828,"миро":3829,"##ап":3830,"##нил":3831,"ситуации":3832,"##мые":3833,"персона":3834,"Ар":3835,"такую":3836,"Один":3837,"влия":3838,"глав":3839,"магази":3840,"внутри":3841,"населения":3842,"готов":3843,"оправ":3844,"Навер":3845,"##циа":3846,"ибо":3847,"##art":3848,"Мак":3849,"##ёз":3850,"Сколько":3851,"люблю":3852,"бонус":3853,"другое":3854,"своими":3855,"вперед":3856,"and":3857,"##бята":3858,"каким":3859,"##ственной":3860,"##сят":3861,"запре":3862,"##фика":3863,"Ника":3864,"##ist":3865,"брать":3866,"захо":3867,"##кому":3868,"##тива":3869,"абсолютно":3870,"бом":3871,"пять":3872,"независи":3873,"смысле":3874,"сом":3875,"доступ":3876,"цены":3877,"макро":3878,"##пок":3879,"##мыш":3880,"##скольку":3881,"##кими":3882,"##ствуют":3883,"машины":3884,"территории":3885,"отправи":3886,"th":3887,"##бри":3888,"##нда":3889,"управля":3890,"##тельных":3891,"наушники":3892,"##оборот":3893,"искать":3894,"одном":3895,"спорт":3896,"##сю":3897,"Смот":3898,"обу":3899,"качестве":3900,"##лого":3901,"испы":3902,"##ческим":3903,"##хать":3904,"оцени":3905,"##ведения":3906,".)":3907,"микрофон":3908,".,":3909,"пом":3910,"##тика":3911,"мере":3912,"##виду":3913,"108":3914,"##нке":3915,"##60":3916,"неме":3917,"ски":3918,"##етесь":3919,"хотят":3920,"##D3":3921,"коло":3922,"##рое":3923,"##били":3924,"##og":3925,"поса":3926,"секу":3927,"распро":3928,"##....":3929,"цель":3930,"мер":3931,"минимум":3932,"увели":3933,"Кар":3934,"##дец":3935,"професси":3936,"отлича":3937,"Москве":3938,"компании":3939,"##груз":3940,"##нной":3941,"Фе":3942,"вторых":3943,"голову":3944,"##ff":3945,"##EX":3946,"ску":3947,"тобой":3948,"можем":3949,"##ter":3950,"##нятно":3951,"насколько":3952,"конкурен":3953,"##комен":3954,"##зь":3955,"клавиатура":3956,"##ec":3957,"озна":3958,"думал":3959,"рез":3960,"аль":3961,"##----":3962,"уст":3963,"198":3964,"##гия":3965,"упа":3966,"ат":3967,"##рию":3968,"упра":3969,"Возможно":3970,"связи":3971,"сначала":3972,"стандар":3973,"собра":3974,"##________":3975,"Украине":3976,"дел":3977,"очередь":3978,"##рования":3979,"дра":3980,"St":3981,"##нили":3982,"шут":3983,"##ссии":3984,"##тельности":3985,"##90":3986,"реак":3987,"##ехал":3988,"моего":3989,"##ственные":3990,"Вер":3991,"выборы":3992,"##читать":3993,"людям":3994,"тупо":3995,"работе":3996,"пути":3997,"вовсе":3998,"орган":3999,"##ген":4000,"21":4001,"уверен":4002,"Сто":4003,"##ясь":4004,"здоров":4005,"##нако":4006,"##ино":4007,"##кру":4008,"весьма":4009,"##НА":4010,"экспери":4011,"##пас":4012,"##дим":4013,"городе":4014,"написал":4015,"паль":4016,"горо":4017,"придума":4018,"спокой":4019,"соба":4020,"##ставки":4021,"будто":4022,"какую":4023,"##РО":4024,"внеш":4025,"##дыду":4026,"##тар":4027,"мета":4028,"al":4029,"демокра":4030,"кем":4031,"тепло":4032,"целом":4033,"приво":4034,"##жных":4035,"сделали":4036,"##езд":4037,"##рого":4038,"гарнитура":4039,"отнош":4040,"##ехать":4041,"писать":4042,"рей":4043,"Тем":4044,"приго":4045,"##ено":4046,"##вании":4047,"UC":4048,"##кну":4049,"##нин":4050,"начал":4051,"канди":4052,"пунк":4053,"Отли":4054,"шан":4055,"основ":4056,"пов":4057,"##йдет":4058,"##чая":4059,"пам":4060,"HEX":4061,"##ственных":4062,"строи":4063,"заво":4064,"отлично":4065,"изви":4066,"UC5":4067,"ED3":4068,"##бур":4069,"медици":4070,"игру":4071,"24":4072,"##сами":4073,"дополни":4074,"кандида":4075,"момента":4076,"неё":4077,"##вел":4078,"имеют":4079,"Интерес":4080,"Кро":4081,"оцен":4082,"##нит":4083,"##скими":4084,"считаю":4085,"нашел":4086,"вза":4087,"Чу":4088,"есте":4089,"газ":4090,"##view":4091,"##тел":4092,"##ленных":4093,"новые":4094,"впер":4095,"##ристи":4096,"##дится":4097,"##лено":4098,"существо":4099,"##альных":4100,"ладно":4101,"Ладно":4102,"!\"":4103,"фанта":4104,"##щик":4105,"Всем":4106,"##жали":4107,"внутрен":4108,"каса":4109,"хватит":4110,"государства":4111,"мож":4112,"##юз":4113,"наше":4114,"70":4115,"большинство":4116,"##дные":4117,"гос":4118,"друзья":4119,"##ok":4120,"##нется":4121,"##стите":4122,"##рас":4123,"честно":4124,"финан":4125,"суб":4126,"пользова":4127,"мужи":4128,"##эй":4129,"Ло":4130,"##СТ":4131,"знал":4132,"запу":4133,"##дное":4134,"##ev":4135,"домой":4136,"низ":4137,"##ложить":4138,"##тке":4139,"вкус":4140,"##зву":4141,"##пом":4142,"ненави":4143,"рекла":4144,"Нико":4145,"##вало":4146,"##тельной":4147,"читать":4148,"##ленные":4149,"взгляд":4150,"##шить":4151,"Привет":4152,"Чтобы":4153,"##стика":4154,"непло":4155,"##**":4156,"##вшей":4157,"Без":4158,"руко":4159,"стоимо":4160,"##рование":4161,"ката":4162,"пле":4163,"Ис":4164,"##вляет":4165,"кораб":4166,"самой":4167,"Особенно":4168,"иметь":4169,"везде":4170,"##енера":4171,"##ктора":4172,"##мест":4173,"##дия":4174,"массо":4175,"##ному":4176,"клю":4177,"тка":4178,"англий":4179,"устро":4180,"прочи":4181,"500":4182,"жерт":4183,"##прос":4184,"сма":4185,"##рят":4186,"поле":4187,"вспомни":4188,"праздни":4189,"безопасно":4190,"##цам":4191,"оказалось":4192,"предыду":4193,"обви":4194,"preview":4195,"Ри":4196,"Рас":4197,"чис":4198,"мусо":4199,"##щать":4200,"мое":4201,"##ложен":4202,"орби":4203,"##ющее":4204,"##един":4205,"другу":4206,"ими":4207,"##ору":4208,"##чивать":4209,"Оп":4210,"Меня":4211,"идти":4212,"ЛД":4213,"Ведь":4214,"##реми":4215,"##временно":4216,"мыс":4217,"зу":4218,"197":4219,"##дный":4220,"##вшись":4221,"##жка":4222,"##зоваться":4223,"##чением":4224,"уровень":4225,"чисто":4226,"поро":4227,"реали":4228,"Думаю":4229,"##вшего":4230,"Ча":4231,"виду":4232,"##пор":4233,"наоборот":4234,"##ia":4235,"благодаря":4236,"завтра":4237,"принципе":4238,"##ra":4239,"##мира":4240,"##емый":4241,"##пов":4242,"##ваете":4243,"улице":4244,"скорость":4245,"тело":4246,"данные":4247,"выглядит":4248,"машину":4249,"зло":4250,"гре":4251,"народа":4252,"##ерс":4253,"оде":4254,"196":4255,"##скому":4256,"неиз":4257,"выда":4258,"##oc":4259,"##нт":4260,"##рил":4261,"автор":4262,"добро":4263,"##чис":4264,"капита":4265,"##олог":4266,"##гер":4267,"##ЕН":4268,"##кло":4269,"##ul":4270,"22":4271,"##мить":4272,"##вки":4273,"##торов":4274,"задумы":4275,"Именно":4276,"Ска":4277,"угодно":4278,"лицо":4279,"воды":4280,"##эр":4281,"##сторон":4282,"сро":4283,"коми":4284,"яр":4285,"Фи":4286,"дево":4287,"хватает":4288,"люб":4289,"##ствии":4290,"Согла":4291,"##ата":4292,"осу":4293,"Чи":4294,"такими":4295,"помощью":4296,"опла":4297,"##бенок":4298,"первой":4299,"##дения":4300,"193":4301,"остальное":4302,"самых":4303,"закончи":4304,"дают":4305,"меч":4306,"стара":4307,"реш":4308,"##щен":4309,"##рели":4310,"таком":4311,"четыре":4312,"##льном":4313,"годы":4314,"зам":4315,"жо":4316,"Сан":4317,"##ложение":4318,"##вяза":4319,"созна":4320,"##раж":4321,"чему":4322,"часа":4323,"##рово":4324,"аппара":4325,"##цеп":4326,"преду":4327,"##ственное":4328,"регули":4329,"выго":4330,"##шта":4331,"кад":4332,"объя":4333,"кл":4334,"помочь":4335,"##жку":4336,"темпера":4337,"##рук":4338,"впечат":4339,"анали":4340,"2016":4341,"необходимо":4342,"всяких":4343,"##бов":4344,"##клон":4345,"неделю":4346,"##цем":4347,"изнача":4348,"##пени":4349,"суд":4350,"##сон":4351,"Жириновский":4352,"##нку":4353,"уровне":4354,"существует":4355,"##дился":4356,"ЛДПР":4357,"##след":4358,"ниже":4359,"форму":4360,"сути":4361,"другом":4362,"сколь":4363,"настрой":4364,"Эй":4365,"сравни":4366,"разго":4367,"вело":4368,"##тим":4369,"очередной":4370,"бизнес":4371,"товари":4372,"мысли":4373,"погово":4374,"обратно":4375,"борь":4376,"##тельность":4377,"связ":4378,"уд":4379,"Дело":4380,"дать":4381,"вирту":4382,"выбира":4383,"партия":4384,"##ri":4385,"300":4386,"бое":4387,"представить":4388,"напря":4389,"ваших":4390,"выяс":4391,"занимает":4392,"втор":4393,"млн":4394,"окон":4395,"##санд":4396,"мело":4397,"согласен":4398,"##чики":4399,"разме":4400,"##рич":4401,"##чета":4402,"##бели":4403,"##вей":4404,"глаз":4405,"150":4406,"информации":4407,"радо":4408,"##енности":4409,"сда":4410,"менедж":4411,"возможности":4412,"ныне":4413,"пита":4414,"##сер":4415,"##op":4416,"последние":4417,"Доб":4418,"##тельного":4419,"маль":4420,"СШ":4421,"Оста":4422,"##жают":4423,"##гах":4424,"оказыва":4425,"##щает":4426,"позволяет":4427,"Боль":4428,"прочие":4429,"##фона":4430,"аргу":4431,"##гна":4432,"##кура":4433,"прекрасно":4434,"отда":4435,"##рин":4436,"заяв":4437,"!!":4438,"наблюда":4439,"освобо":4440,"поп":4441,"тел":4442,"нор":4443,"зад":4444,"хороший":4445,"акт":4446,"тю":4447,"диза":4448,"##хоже":4449,"##лл":4450,"Дру":4451,"сказала":4452,"##пис":4453,"след":4454,"удоволь":4455,"упомина":4456,"##жном":4457,"каком":4458,"##прочем":4459,"##яд":4460,"##ss":4461,"##дных":4462,"##вит":4463,"подоз":4464,"знают":4465,"другого":4466,"##принима":4467,"##бая":4468,"##юга":4469,"##тивно":4470,"##ментов":4471,"##ep":4472,"##шай":4473,"патри":4474,"##МИ":4475,"ото":4476,"##лах":4477,"мел":4478,"##дую":4479,"##вен":4480,"посту":4481,"простой":4482,"размер":4483,"телефон":4484,"##дже":4485,"##дёт":4486,"##предел":4487,"запрет":4488,"Наверное":4489,"##рад":4490,"опыт":4491,"любом":4492,"##тек":4493,"кожа":4494,"начали":4495,"Нов":4496,"##дох":4497,"страну":4498,"##тал":4499,"сайт":4500,"195":4501,"##ha":4502,"##рица":4503,"неск":4504,"Крым":4505,"##гина":4506,"Более":4507,"высоко":4508,"##никами":4509,"ребенок":4510,"одновременно":4511,"плани":4512,"Поль":4513,"восста":4514,"никакой":4515,"192":4516,"Алекс":4517,"Россий":4518,"заба":4519,"Этот":4520,"приз":4521,"##фы":4522,"золо":4523,"мужчи":4524,"прос":4525,"пришлось":4526,"сохра":4527,"##льт":4528,"##жется":4529,"##нице":4530,"законо":4531,"времен":4532,"составля":4533,"##емых":4534,"отправля":4535,"##лья":4536,"##АР":4537,"компьютер":4538,"Ничего":4539,"захва":4540,"умень":4541,"Александ":4542,"причем":4543,"помни":4544,"##17":4545,"фана":4546,"угро":4547,"##оло":4548,"##and":4549,"револю":4550,"явно":4551,"##сей":4552,"знаком":4553,"##мую":4554,"терро":4555,"##пада":4556,"##лина":4557,"получил":4558,"Кроме":4559,"##щим":4560,"Нава":4561,"пры":4562,"элем":4563,"пропаган":4564,"секрет":4565,"##жела":4566,"считать":4567,"сц":4568,"рассказыва":4569,"эмо":4570,"написано":4571,"##ох":4572,"первую":4573,"вод":4574,"дек":4575,"коле":4576,"конц":4577,"лета":4578,"##жаться":4579,"##мая":4580,"##ственного":4581,"##нюю":4582,"##стрее":4583,"популяр":4584,"свето":4585,"Ев":4586,"любы":4587,"историю":4588,"смерти":4589,"миллиар":4590,"интернет":4591,"недавно":4592,"первом":4593,"##нев":4594,"##ваний":4595,"##альной":4596,"##гие":4597,"сна":4598,"23":4599,"девай":4600,"всему":4601,"сель":4602,"##лке":4603,"условиях":4604,"удиви":4605,"ау":4606,"говно":4607,"интерн":4608,"##ванием":4609,"агре":4610,"зе":4611,"поку":4612,"решения":4613,"десять":4614,"решили":4615,"раст":4616,"пись":4617,"выход":4618,"вн":4619,"выхо":4620,"муз":4621,"зато":4622,"##пода":4623,"распол":4624,"гро":4625,"Больше":4626,"##оны":4627,"вст":4628,"##дание":4629,"винова":4630,"страна":4631,"зря":4632,"конца":4633,"поги":4634,"The":4635,"восто":4636,"Фран":4637,"##тной":4638,"мнению":4639,"##кать":4640,"неф":4641,"?)":4642,"остальных":4643,"сторон":4644,"пожа":4645,"причина":4646,"судь":4647,"супер":4648,"сел":4649,"преж":4650,"Гу":4651,"##эн":4652,"Чем":4653,"ун":4654,"солн":4655,"##смотря":4656,"##ственная":4657,"включая":4658,"функ":4659,"изначально":4660,"писал":4661,"пого":4662,"##министра":4663,"##няет":4664,"телеви":4665,"##кол":4666,"разру":4667,"##10":4668,"конт":4669,"##мм":4670,"поняли":4671,"уважа":4672,"191":4673,"гол":4674,"##фу":4675,"действия":4676,"долларов":4677,"##лле":4678,"конструк":4679,"раду":4680,"##рение":4681,"несмотря":4682,"##лла":4683,"Вели":4684,"своё":4685,"##енность":4686,"всеми":4687,"##ального":4688,"стати":4689,"поб":4690,"плюс":4691,"прив":4692,"государство":4693,"##ob":4694,"##навли":4695,"##бре":4696,"рег":4697,"##ились":4698,"##аров":4699,"нового":4700,"вып":4701,"цер":4702,"трудно":4703,"ран":4704,"##жели":4705,"скры":4706,"Единой":4707,"##жнее":4708,"ставить":4709,"твой":4710,"##ld":4711,"зи":4712,"##ехали":4713,"пережи":4714,"спут":4715,"ею":4716,"вку":4717,"##ложения":4718,"##мать":4719,"выступ":4720,"сообщает":4721,"##зем":4722,"хра":4723,"прим":4724,"НЕ":4725,"возь":4726,"ут":4727,"систем":4728,"эффект":4729,"##ковых":4730,"тема":4731,"атмос":4732,"##они":4733,"называется":4734,"остальные":4735,"тормо":4736,"##ведение":4737,"##лед":4738,"##ленной":4739,"выз":4740,";,":4741,"##ует":4742,"поскольку":4743,"##ейс":4744,"избе":4745,"карто":4746,"##чал":4747,"посе":4748,"тради":4749,"##шке":4750,"изу":4751,"топли":4752,"ПО":4753,"крити":4754,"следует":4755,"хуй":4756,"получилось":4757,"##дца":4758,"иск":4759,"века":4760,"Здесь":4761,"спосо":4762,"Укра":4763,"провести":4764,"##КО":4765,"выбра":4766,"##рик":4767,"прет":4768,"отм":4769,"Авто":4770,"##щаться":4771,"немец":4772,"##грать":4773,"фран":4774,"мама":4775,"науч":4776,"напи":4777,"результате":4778,"затем":4779,"помощь":4780,"##чкой":4781,"идея":4782,"май":4783,"дета":4784,"Слу":4785,"ремон":4786,"курсе":4787,"рекомен":4788,"потре":4789,"недоста":4790,"разница":4791,"##вол":4792,"согласи":4793,"тяжело":4794,"ого":4795,"нашего":4796,"внимания":4797,"Коро":4798,"постави":4799,"взры":4800,"далее":4801,"алкого":4802,"бар":4803,"режим":4804,"ян":4805,"вчера":4806,"##хом":4807,"##нику":4808,"результат":4809,"##ka":4810,"пото":4811,"участи":4812,"##шите":4813,"первого":4814,"видите":4815,"устраи":4816,"случаях":4817,"##чай":4818,"прекрас":4819,"скорости":4820,"конф":4821,"европей":4822,"сказали":4823,"##илась":4824,"аж":4825,"болез":4826,"##чнее":4827,"Амери":4828,"посо":4829,"получится":4830,"комфор":4831,"##егодня":4832,"##пира":4833,"##чили":4834,"столом":4835,"цели":4836,"глуби":4837,"##бора":4838,"##чены":4839,"гром":4840,"парт":4841,"работают":4842,"бывают":4843,"оппози":4844,"##40":4845,"штука":4846,"##хание":4847,"зависит":4848,"голове":4849,"назна":4850,"час":4851,"искус":4852,"##дишь":4853,"сет":4854,"сен":4855,"##нная":4856,"сня":4857,"##альным":4858,"##дку":4859,"проверить":4860,"107":4861,"поверхности":4862,"книги":4863,"слов":4864,"Единая":4865,"моих":4866,"##ндро":4867,"роли":4868,"##емая":4869,"силы":4870,"придется":4871,"##РА":4872,"машина":4873,"потеря":4874,"Ага":4875,"##ленный":4876,"проя":4877,"##вь":4878,"Сегодня":4879,"опреде":4880,"век":4881,"ответственно":4882,"делаю":4883,"запла":4884,"тан":4885,"##интерес":4886,"##пле":4887,"Иг":4888,"мышь":4889,"нажа":4890,"жена":4891,"чемпион":4892,"##рки":4893,"наконец":4894,"Владими":4895,"##тку":4896,"полиции":4897,"##чий":4898,"сне":4899,"проте":4900,"##if":4901,"##енты":4902,"!).":4903,"бак":4904,"скажу":4905,"##ковод":4906,"Зюга":4907,"##альная":4908,"спаса":4909,"##ствую":4910,"процесс":4911,"##лев":4912,"фра":4913,"сидеть":4914,"сент":4915,"глубо":4916,"Кор":4917,"##лаг":4918,"увидеть":4919,"прибы":4920,"никому":4921,"рам":4922,"просты":4923,"##хран":4924,"кабель":4925,"##бом":4926,"планет":4927,"начале":4928,"##her":4929,"одному":4930,"##эро":4931,"Совет":4932,"##реза":4933,"состоянии":4934,"заг":4935,"зд":4936,"могла":4937,"подса":4938,"смысла":4939,"щел":4940,"имею":4941,"давайте":4942,"тай":4943,"помощи":4944,"##ключить":4945,"весе":4946,"процен":4947,"даль":4948,"Попро":4949,"##емой":4950,"##сипе":4951,"##====":4952,"верно":4953,"##жут":4954,"разбира":4955,"своем":4956,"##муще":4957,"последний":4958,"##лье":4959,"##телем":4960,"казалось":4961,"видеть":4962,"утра":4963,"пользоваться":4964,"##ванию":4965,"большая":4966,"времена":4967,"имя":4968,"##гар":4969,"класси":4970,"##альное":4971,"месяцев":4972,"рассмот":4973,"##оти":4974,"симмет":4975,"нема":4976,"чинов":4977,"##По":4978,"##шой":4979,"удобно":4980,"##стности":4981,"##щему":4982,"##гал":4983,"сердце":4984,"##писать":4985,"##...":4986,"печа":4987,"думать":4988,"случилось":4989,"##вов":4990,"побо":4991,"красоты":4992,"##дам":4993,"возвраща":4994,"##лым":4995,"дни":4996,"водо":4997,"приятно":4998,"центра":4999,"ясно":5000,"##стли":5001,"##лями":5002,"##нике":5003,"многое":5004,"кана":5005,"##гно":5006,"комплекте":5007,"гаранти":5008,"##чё":5009,"##пуск":5010,"##нного":5011,"язык":5012,"##вные":5013,"живут":5014,"зарабо":5015,"отношение":5016,"AM":5017,"догово":5018,"ребенка":5019,"!)":5020,"осве":5021,"дели":5022,"никого":5023,"##лежа":5024,"очевидно":5025,"задни":5026,"неправи":5027,"##тации":5028,"однако":5029,"##вка":5030,"##дьми":5031,"прочее":5032,"##bo":5033,"вк":5034,"Май":5035,"слышал":5036,"##рые":5037,"тыс":5038,"оли":5039,"##шед":5040,"путь":5041,"Их":5042,"##ету":5043,"Уже":5044,"##раи":5045,"бри":5046,"##ation":5047,"глупо":5048,"Интересно":5049,"превраща":5050,"самая":5051,"##шит":5052,"появля":5053,"новых":5054,"проре":5055,"боя":5056,"Собственно":5057,"Посмот":5058,"кр":5059,"узнать":5060,"профессиона":5061,"35":5062,"уб":5063,"странно":5064,"пробе":5065,"нему":5066,"##пно":5067,"##ъе":5068,"звез":5069,"разв":5070,"##таться":5071,"##ствием":5072,"Меха":5073,"номер":5074,"мебели":5075,"##ers":5076,"##шали":5077,"потреб":5078,"руковод":5079,"##пустить":5080,"##руются":5081,"едино":5082,"озву":5083,"парень":5084,"быстрее":5085,"##кта":5086,"метро":5087,"кое":5088,"Вол":5089,"Ту":5090,"месяца":5091,"маленький":5092,"форм":5093,"глад":5094,"неплохо":5095,"##треб":5096,"##вин":5097,"август":5098,"знаем":5099,"##работ":5100,"госпо":5101,"##валось":5102,"дура":5103,"##чиков":5104,"вечер":5105,"содержа":5106,"присут":5107,"опро":5108,"##стр":5109,"##гам":5110,"Лени":5111,"пишу":5112,"осозна":5113,"русских":5114,"платить":5115,"##ферен":5116,"определя":5117,"учены":5118,"голосовать":5119,"аналоги":5120,"инстру":5121,"множе":5122,"отдел":5123,"##пка":5124,"##аку":5125,"##30":5126,"успо":5127,"активно":5128,"солда":5129,"##невая":5130,"положи":5131,"##сюда":5132,"людьми":5133,"##ило":5134,"##ину":5135,"велосипе":5136,"превра":5137,"##ентов":5138,"##кои":5139,"##тельным":5140,"##енд":5141,"ракеты":5142,"кнопок":5143,"адре":5144,"сх":5145,"неве":5146,"претен":5147,"##чами":5148,"нынеш":5149,"геймер":5150,"полит":5151,"упомя":5152,"сбор":5153,"хотелось":5154,"гри":5155,"несколь":5156,"данном":5157,"нек":5158,"##льник":5159,"матема":5160,"разы":5161,"##валась":5162,"##жность":5163,"##няка":5164,"арм":5165,"##лай":5166,"вп":5167,"клавиатуре":5168,"Механи":5169,"выи":5170,"##11":5171,"напро":5172,"возмо":5173,"клавиатуру":5174,"##шёл":5175,"нагруз":5176,"фин":5177,"привлека":5178,"Какой":5179,"бере":5180,"юри":5181,"Значит":5182,"Люди":5183,"##новить":5184,"осталось":5185,"мышки":5186,"пят":5187,"2014":5188,"обой":5189,"##мар":5190,"Сов":5191,"проект":5192,"мора":5193,"нашли":5194,"дож":5195,"администра":5196,"начинает":5197,"##арь":5198,"##тически":5199,"##стях":5200,"движения":5201,"война":5202,"##нное":5203,"клуб":5204,"зв":5205,"##ВО":5206,"Давайте":5207,"апр":5208,"лица":5209,"Эти":5210,"эпи":5211,"##бую":5212,"##ace":5213,"##тная":5214,"##рючок":5215,"##аа":5216,"выборах":5217,"подс":5218,"##дная":5219,"##лосо":5220,"широ":5221,"Германии":5222,"работаю":5223,"исключительно":5224,"учиты":5225,"трех":5226,"корот":5227,"запуска":5228,"##дила":5229,"##мыс":5230,"нед":5231,"##гни":5232,"голоса":5233,"##тивный":5234,"##тего":5235,"игровая":5236,"следующий":5237,"настройка":5238,"подсветка":5239,"ноя":5240,"прям":5241,"##аны":5242,"пространство":5243,"подробно":5244,"Вто":5245,"утвержда":5246,"##чика":5247,"##нулся":5248,"##зра":5249,"px":5250,"##киды":5251,"##ваешь":5252,"##чении":5253,"##рыв":5254,"студен":5255,"##нта":5256,"##влении":5257,"##никам":5258,"Нам":5259,"герой":5260,"будешь":5261,"##бил":5262,"крайне":5263,"##жь":5264,"отрегули":5265,"междуна":5266,"##гуляр":5267,"##II":5268,"русский":5269,"дорогой":5270,"возник":5271,"кг":5272,"прико":5273,"универ":5274,"свидете":5275,"поми":5276,"выжи":5277,"привести":5278,"сюжет":5279,"подсветкой":5280,"дешевле":5281,"Луч":5282,"##ib":5283,"пут":5284,"мысль":5285,"##ваюсь":5286,"AK":5287,"##ственным":5288,"Фо":5289,"Какие":5290,"стиле":5291,"##шают":5292,"максима":5293,"##дож":5294,"программиру":5295,"обнаружи":5296,"показыва":5297,"##читал":5298,"регулировки":5299,"прожи":5300,"подсветку":5301,"член":5302,"75":5303,"сил":5304,"крайней":5305,"нами":5306,"бор":5307,"подставка":5308,"AH":5309,"##ыми":5310,"игровое":5311,"школе":5312,"исти":5313,"##ant":5314,"примеру":5315,"Лично":5316,"ассо":5317,"##рез":5318,"располож":5319,"Ник":5320,"квартире":5321,"объек":5322,"##фри":5323,"хло":5324,"##пах":5325,"##еди":5326,"##меется":5327,"кожаными":5328,"руково":5329,"пона":5330,"хле":5331,"говорите":5332,"нежном":5333,"сты":5334,"an":5335,"останови":5336,"ваша":5337,"паци":5338,"самым":5339,"примен":5340,"##ностью":5341,"##мость":5342,"бол":5343,"прорезин":5344,"зао":5345,"правило":5346,"подъ":5347,"замо":5348,"амбуш":5349,"амбушю":5350,"приходится":5351,"Ци":5352,"услы":5353,"макросов":5354,"##гл":5355,"услу":5356,"##вится":5357,"##ведливо":5358,"оконча":5359,"прог":5360,"AH7":5361,"написать":5362,"AM7":5363,"школ":5364,"AK7":5365,"Сам":5366,"горя":5367,"##йся":5368,"заслужи":5369,"##диться":5370,"бата":5371,"данный":5372,"выбора":5373,"id2":5374,"##енти":5375,"##стами":5376,"приве":5377,"беско":5378,"непонят":5379,"использования":5380,"зака":5381,"##вор":5382,"инжен":5383,"развития":5384,"электри":5385,"##але":5386,"подпи":5387,"радио":5388,"хими":5389,"читал":5390,"идёт":5391,"##eg":5392,"##бовать":5393,"матч":5394,"уро":5395,"камер":5396,"##доро":5397,"генера":5398,"карма":5399,"человеку":5400,"27":5401,"удалось":5402,"сере":5403,"Сле":5404,"копи":5405,"понимаете":5406,"плане":5407,"Изви":5408,"избира":5409,"Прави":5410,"##шему":5411,"##ришь":5412,"данных":5413,"привет":5414,"катего":5415,"сравн":5416,"##мин":5417,"службы":5418,"Самое":5419,"нер":5420,"мою":5421,"Пра":5422,"##гают":5423,"##бок":5424,"ваше":5425,"##шин":5426,"##99":5427,"бля":5428,"путе":5429,"религи":5430,"акти":5431,"##кви":5432,"##тво":5433,"Пло":5434,"##ард":5435,"##мат":5436,"##КА":5437,"касается":5438,"##льными":5439,"идут":5440,"мотива":5441,"##жная":5442,"Мой":5443,"уши":5444,"##ich":5445,"Ос":5446,"##кров":5447,"##мили":5448,"насчет":5449,"думаете":5450,"##шкой":5451,"##веде":5452,"##кала":5453,"принад":5454,"реа":5455,"##телям":5456,"армии":5457,"45":5458,"##шни":5459,"##la":5460,"типи":5461,"сопро":5462,"авиа":5463,"##ура":5464,"Эта":5465,"хотели":5466,"намного":5467,"Итак":5468,"##ллю":5469,"отрица":5470,"полага":5471,"иди":5472,"бабу":5473,"##менить":5474,"Анд":5475,"безопасности":5476,"Пол":5477,"цивили":5478,"масса":5479,"##пень":5480,"фильма":5481,"##дан":5482,"фаши":5483,"относительно":5484,"##тое":5485,"психи":5486,"##ort":5487,"кров":5488,"Ав":5489,"##ost":5490,"##бин":5491,"##пен":5492,"устрой":5493,"##пан":5494,"##нья":5495,"##ниц":5496,"##ry":5497,"Исто":5498,"недели":5499,"пог":5500,";)":5501,"##ходы":5502,"Ещё":5503,"##луч":5504,"##рно":5505,"инди":5506,"--":5507,"метров":5508,"фон":5509,"разум":5510,"буква":5511,"##лети":5512,"28":5513,"##чено":5514,"средства":5515,"##стит":5516,"##тября":5517,"##влению":5518,"Челове":5519,"##рили":5520,"начать":5521,"##мым":5522,"прили":5523,"оба":5524,"##кин":5525,"мяг":5526,"данным":5527,"отец":5528,"позна":5529,"группы":5530,"веще":5531,"Ша":5532,"##рена":5533,"ужас":5534,"поез":5535,"убира":5536,"рассчиты":5537,"карту":5538,"прис":5539,"preview_":5540,"спокойно":5541,"расши":5542,"уз":5543,"Причем":5544,"чо":5545,"##кости":5546,"##пой":5547,"##гали":5548,"север":5549,"пок":5550,"рези":5551,"##терна":5552,"говорили":5553,"клу":5554,"ближай":5555,"контра":5556,"францу":5557,"света":5558,"##мор":5559,"Давай":5560,"класс":5561,"##ame":5562,"##менти":5563,"список":5564,"региона":5565,"26":5566,"пика":5567,"чувство":5568,"##сыпа":5569,"объяснить":5570,"гло":5571,"иностран":5572,"видели":5573,"##гей":5574,"##титься":5575,"произошло":5576,"живу":5577,"Нес":5578,"Пусть":5579,"Sp":5580,"##хуй":5581,"Наде":5582,"Ге":5583,"оправды":5584,"систему":5585,"##поли":5586,"прежде":5587,"общения":5588,"##датель":5589,"##лив":5590,"##лят":5591,"нечего":5592,"##ГО":5593,"##клад":5594,"информацию":5595,"Бер":5596,"Федера":5597,"взаимо":5598,"мясо":5599,"масшта":5600,"вече":5601,"ходить":5602,"Чер":5603,"поря":5604,"##обрет":5605,"огромное":5606,"on":5607,"%.":5608,"Через":5609,"##еров":5610,"##СА":5611,"зер":5612,"поля":5613,"наша":5614,"женщина":5615,"Никто":5616,"другому":5617,"##образ":5618,"Полу":5619,"компания":5620,"качество":5621,"означает":5622,"##дино":5623,"##няется":5624,"ага":5625,"##жением":5626,"соста":5627,"##ющими":5628,"сможете":5629,"жел":5630,"##мены":5631,"##делить":5632,"имел":5633,"##ева":5634,"чува":5635,"русские":5636,"уп":5637,"ген":5638,"роль":5639,"испол":5640,"взял":5641,"##вных":5642,"всякие":5643,"Би":5644,"вопросов":5645,"##нос":5646,"##вью":5647,":-":5648,"Вопрос":5649,"покры":5650,"сосед":5651,"##леты":5652,"##зия":5653,"родствен":5654,"приходилось":5655,"##сток":5656,"мать":5657,"Гово":5658,"живет":5659,"##зора":5660,"шт":5661,"##ick":5662,"рассматри":5663,"##рут":5664,"смарт":5665,"Миха":5666,"##нести":5667,"##чём":5668,"Сразу":5669,"##драв":5670,"профи":5671,"##70":5672,"реки":5673,"винов":5674,"In":5675,"стоять":5676,"экспер":5677,"##тного":5678,"район":5679,"##чии":5680,"##НИ":5681,"отличный":5682,"баб":5683,"изобра":5684,"Пе":5685,"##стую":5686,"струк":5687,"телефо":5688,"сцена":5689,"неа":5690,"теме":5691,"став":5692,"пишут":5693,"for":5694,"аэро":5695,"##логов":5696,"число":5697,"дорого":5698,"лето":5699,"оригина":5700,"##чными":5701,"Ги":5702,"##роме":5703,"Никаких":5704,"##чин":5705,"первые":5706,"400":5707,"расстоя":5708,"##ано":5709,"##ЛЬ":5710,"суть":5711,"заниматься":5712,"СМИ":5713,"##ВА":5714,"управ":5715,"##кса":5716,"разобра":5717,"буты":5718,"опасно":5719,"делал":5720,"округ":5721,"##az":5722,"стоят":5723,"##нял":5724,"ситуацию":5725,"загля":5726,"древ":5727,"отмет":5728,"вклю":5729,"##ard":5730,"##вут":5731,"##бол":5732,"боро":5733,"выш":5734,"напомина":5735,"дире":5736,"декабря":5737,"окружа":5738,"вряд":5739,"##кор":5740,"бой":5741,"##форми":5742,"завер":5743,"2015":5744,"надеюсь":5745,"января":5746,"интересу":5747,"ай":5748,"название":5749,"поставить":5750,"новости":5751,"охо":5752,"ВС":5753,"##ляют":5754,"##телями":5755,"##ментом":5756,"##ive":5757,"мыш":5758,"##avel":5759,"напа":5760,"заряд":5761,"обеспечи":5762,"судя":5763,"предста":5764,"водите":5765,"возника":5766,"изо":5767,"исче":5768,"##шением":5769,"четвер":5770,"паро":5771,"##стая":5772,"##ложил":5773,"тур":5774,"яй":5775,"##жек":5776,"километ":5777,"разно":5778,"обсужда":5779,"##стями":5780,"земли":5781,"Украина":5782,"???":5783,"работал":5784,"разво":5785,"запад":5786,"научи":5787,"считает":5788,"##нему":5789,"семей":5790,"быто":5791,"##кали":5792,"??":5793,"2010":5794,"док":5795,"##голов":5796,"##рус":5797,"##евич":5798,"позже":5799,"##лении":5800,"вашего":5801,"графи":5802,"счастли":5803,"путеше":5804,"существ":5805,"увидел":5806,"любая":5807,"человеком":5808,"секун":5809,"возвра":5810,"инф":5811,"чест":5812,"пригла":5813,"1000":5814,"Жи":5815,"##per":5816,"штра":5817,"##lo":5818,".—":5819,"качеств":5820,"идио":5821,"##ЕР":5822,"масло":5823,"дали":5824,"ждать":5825,"Стра":5826,"законы":5827,"Бра":5828,"##ляции":5829,"войну":5830,"##пят":5831,"обществ":5832,"Дон":5833,"действует":5834,"##пит":5835,"воду":5836,"Тебе":5837,"##ьем":5838,"привык":5839,"2017":5840,"##жим":5841,"марта":5842,"##порт":5843,"мл":5844,"заставля":5845,"некото":5846,"##щь":5847,"килограм":5848,"района":5849,"Рабо":5850,"прогре":5851,"поднима":5852,"вопроса":5853,"журнали":5854,"архи":5855,"потра":5856,"ехать":5857,"опас":5858,"гео":5859,"серьёз":5860,"правила":5861,"лез":5862,"продолжа":5863,"Европе":5864,"спец":5865,"##ота":5866,"кло":5867,"мая":5868,"оскор":5869,"считают":5870,"разгово":5871,"чаще":5872,"Кр":5873,"сентября":5874,"твое":5875,"##дор":5876,"##дних":5877,"годах":5878,"статьи":5879,"##14":5880,"##лений":5881,"вести":5882,"##стоит":5883,"##шил":5884,"новой":5885,"##ходил":5886,"##ёте":5887,"верить":5888,"през":5889,"##нности":5890,"событий":5891,"составе":5892,"перво":5893,"воору":5894,"словом":5895,"сайте":5896,"Влад":5897,"Сою":5898,"досто":5899,"##ang":5900,"президент":5901,"общества":5902,"заклю":5903,"период":5904,"бал":5905,"жаль":5906,"море":5907,"машине":5908,"##рек":5909,"делали":5910,"комментари":5911,"Каж":5912,"оружие":5913,"постав":5914,"Com":5915,"##гром":5916,"US":5917,"скажем":5918,"##ленная":5919,"мозг":5920,"ядер":5921,"alt":5922,"подру":5923,"Москвы":5924,"сети":5925,"##дение":5926,"ребята":5927,"отличие":5928,"##рка":5929,"##ЛО":5930,"желез":5931,"прибли":5932,"ев":5933,"самостоя":5934,"##_t":5935,"пожела":5936,"автобу":5937,"исключением":5938,"##лакти":5939,"отсутствие":5940,"президента":5941,"стены":5942,"сообщи":5943,"кап":5944,"ув":5945,"опо":5946,"##ЛИ":5947,"твои":5948,"гля":5949,"Трам":5950,"##ct":5951,"совме":5952,"жал":5953,"выглядят":5954,"энергии":5955,"пак":5956,"понимание":5957,"рейтин":5958,"Мед":5959,"районе":5960,"октября":5961,"суде":5962,"пишет":5963,"шутка":5964,"отды":5965,"побед":5966,"##енным":5967,"дорогу":5968,"##чия":5969,"распоря":5970,"япон":5971,"модели":5972,"##ковые":5973,"дал":5974,"одинаково":5975,"июля":5976,"мимо":5977,"другая":5978,"##дак":5979,"заодно":5980,"вни":5981,"рецеп":5982,"грави":5983,"##тяги":5984,"##ером":5985,"##есть":5986,"##гая":5987,"думаешь":5988,"##лением":5989,"направ":5990,"##вав":5991,"##ube":5992,"спря":5993,"странах":5994,"темно":5995,"стоимость":5996,"##––––":5997,"оказывается":5998,"##тило":5999,"##пус":6000,"##чник":6001,"санк":6002,"##рисо":6003,"бесплатно":6004,"сог":6005,"проголо":6006,"тела":6007,"ума":6008,"руках":6009,"бен":6010,"обору":6011,"сомни":6012,"отказался":6013,"воло":6014,"другую":6015,"технологии":6016,"##ill":6017,"дя":6018,"считаете":6019,"##коном":6020,"демон":6021,"экра":6022,"августа":6023,"##цах":6024,"правитель":6025,"доме":6026,"##13":6027,"##кет":6028,"##чном":6029,"информ":6030,"моде":6031,"девушка":6032,"безу":6033,"противоре":6034,"вор":6035,"##нина":6036,"готовы":6037,"купил":6038,"тюрь":6039,"расскажу":6040,"##жным":6041,"перев":6042,"приро":6043,"выходит":6044,"##оно":6045,"##фиг":6046,"пошли":6047,"ца":6048,"непонятно":6049,"##age":6050,"##дон":6051,"естественно":6052,"выглядеть":6053,"##ковой":6054,"аг":6055,"филосо":6056,"являются":6057,"Согласно":6058,"Бел":6059,"##меча":6060,"жало":6061,"тысячи":6062,"##альном":6063,"отка":6064,"показать":6065,"##инов":6066,"конкретно":6067,"оборо":6068,"кисло":6069,"##иться":6070,"доби":6071,"серьезно":6072,"нака":6073,"##ew":6074,"##лую":6075,"дороге":6076,"Разве":6077,"рассу":6078,"##атр":6079,"семьи":6080,"смерть":6081,"дизайн":6082,"современные":6083,"##ast":6084,"актив":6085,"держа":6086,"корруп":6087,"июня":6088,"расположен":6089,"условия":6090,"##крой":6091,"разговари":6092,"друзей":6093,"понимать":6094,"своему":6095,"прото":6096,"##коми":6097,"наци":6098,"бесс":6099,"робо":6100,"давай":6101,"твоя":6102,"случайно":6103,"##лика":6104,"нескольких":6105,"руку":6106,"роди":6107,"предполага":6108,"россия":6109,"войск":6110,"##сила":6111,"##тик":6112,"смешно":6113,"##роваться":6114,"хотела":6115,"ждет":6116,"фиг":6117,"адеква":6118,"серви":6119,"##ёшь":6120,"добра":6121,"##жна":6122,"Владимир":6123,"хозяй":6124,"покупать":6125,"комнату":6126,"куча":6127,"##нность":6128,"воспринима":6129,"##нула":6130,"неадеква":6131,"is":6132,"домаш":6133,"##est":6134,"##19":6135,"##йт":6136,"крови":6137,"сидя":6138,"психологи":6139,"ответить":6140,"Повер":6141,"фотографии":6142,"другими":6143,"показ":6144,"##our":6145,"##няют":6146,"##iz":6147,"отдельный":6148,"##тическая":6149,"##сор":6150,"всякого":6151,"##вная":6152,"избежать":6153,"заболе":6154,"допусти":6155,"наибо":6156,"пери":6157,"##акс":6158,"одино":6159,"##ver":6160,"верю":6161,"##a_":6162,"обойти":6163,"##циони":6164,"спу":6165,"Плю":6166,"апреля":6167,"##плей":6168,"##блем":6169,"поду":6170,"последнее":6171,"Впрочем":6172,"арх":6173,"ноября":6174,"рассказать":6175,"##льнее":6176,"Обы":6177,"срок":6178,"##лег":6179,"ноги":6180,"##мпи":6181,"желание":6182,"прем":6183,"неприят":6184,"зави":6185,"мин":6186,"удобнее":6187,"##енко":6188,"##лиз":6189,"мон":6190,"бана":6191,"внеза":6192,"полный":6193,"##ссия":6194,"ввиду":6195,"##илось":6196,"кат":6197,"##способ":6198,"ще":6199,"прич":6200,"##есе":6201,"гори":6202,"школы":6203,"предупре":6204,"женщины":6205,"##))))":6206,"дро":6207,"выну":6208,"##ация":6209,"исследования":6210,"соот":6211,"##слов":6212,"##мого":6213,"Ок":6214,"каждой":6215,"промыш":6216,"##править":6217,"обма":6218,"автомати":6219,"гер":6220,"повез":6221,"брат":6222,"Нужно":6223,"будь":6224,"##утбо":6225,"переме":6226,"##стья":6227,"модель":6228,"проигры":6229,"вин":6230,"текст":6231,"##мся":6232,"##rom":6233,"деятель":6234,"социали":6235,"любят":6236,"подготов":6237,"космос":6238,"местах":6239,"трав":6240,"Св":6241,"дороже":6242,"кот":6243,"управлять":6244,"альтерна":6245,"поговорить":6246,"граду":6247,"##нуться":6248,"пое":6249,"##бами":6250,"транспорт":6251,"диску":6252,"##рика":6253,"мамы":6254,"зависимости":6255,"производства":6256,"##ine":6257,"im":6258,"перспе":6259,"вашему":6260,"характер":6261,"##eo":6262,"##ix":6263,"лекар":6264,"Гра":6265,"##тую":6266,"##ud":6267,"##ходов":6268,"женщин":6269,"##чками":6270,"##новые":6271,"убор":6272,"наверняка":6273,"ябло":6274,"реальности":6275,"регуляр":6276,"приез":6277,"пья":6278,"фут":6279,"##ЕТ":6280,"пойти":6281,"террори":6282,"посла":6283,"био":6284,"бла":6285,"пасса":6286,"менять":6287,"##MA":6288,"салон":6289,"##пет":6290,"долл":6291,"##сед":6292,"полицей":6293,"Ив":6294,"##днее":6295,"сдел":6296,"которому":6297,"##жида":6298,"##18":6299,"февраля":6300,"чай":6301,"жест":6302,"течение":6303,"##енько":6304,"Александр":6305,"особ":6306,"дис":6307,"##15":6308,"заявил":6309,"опытом":6310,"sh":6311,"##ъя":6312,"носи":6313,"Также":6314,"##гент":6315,"##зит":6316,"##читывая":6317,"##ind":6318,"понятия":6319,"##вшая":6320,"лучшем":6321,"повторя":6322,"поза":6323,"##няли":6324,"оре":6325,"Ды":6326,"id3":6327,"понимаешь":6328,"ровно":6329,"гран":6330,"выска":6331,"##чника":6332,"##нутые":6333,"пыль":6334,"словам":6335,"##жено":6336,"достой":6337,"опти":6338,"центре":6339,"ночью":6340,"Ново":6341,"##лайн":6342,"сомне":6343,"##щиков":6344,"Каза":6345,"##кад":6346,"##льса":6347,"190":6348,"потен":6349,"хорошая":6350,"##лили":6351,"ближе":6352,"непро":6353,"эконом":6354,"новую":6355,"выборов":6356,"партий":6357,"установки":6358,"крем":6359,"отсюда":6360,"ля":6361,"##зировать":6362,"переры":6363,"Было":6364,"степени":6365,"теории":6366,"##дю":6367,"прошлом":6368,"ке":6369,"##реди":6370,"##туда":6371,"##интересо":6372,"##зацию":6373,"литера":6374,"имени":6375,"сокра":6376,"##щается":6377,"Какая":6378,"##жин":6379,"нава":6380,"поздно":6381,"HD":6382,"голосу":6383,"твоей":6384,"вечером":6385,"Сп":6386,"##ческими":6387,"сверх":6388,"дор":6389,"##рых":6390,"ох":6391,"##ell":6392,"участие":6393,"Зато":6394,"сделан":6395,"##мани":6396,"##жений":6397,"вспомина":6398,"торго":6399,"кучу":6400,"настроения":6401,"мешает":6402,"be":6403,"Поли":6404,"##МО":6405,"образования":6406,"##тором":6407,"бизне":6408,"никуда":6409,"оказался":6410,"сф":6411,"ярко":6412,"Ябло":6413,"евре":6414,"##лил":6415,"ков":6416,"рождения":6417,"высоты":6418,"магазин":6419,"улы":6420,"Нас":6421,"зай":6422,"##ime":6423,"кух":6424,"капитали":6425,"прока":6426,"бук":6427,"##лим":6428,"ока":6429,"##тным":6430,"мерт":6431,"##щении":6432,"пытался":6433,"чудо":6434,"слабо":6435,"пуска":6436,"Дол":6437,"сдви":6438,"Крас":6439,"первая":6440,"##ont":6441,"##влением":6442,"##циях":6443,"масси":6444,"временем":6445,"послу":6446,"##где":6447,"информация":6448,"рамках":6449,"##ey":6450,"длин":6451,"##пать":6452,"##преры":6453,"федера":6454,"российских":6455,"употреб":6456,"##част":6457,"Моло":6458,"значительно":6459,"##дном":6460,"пояс":6461,"цвето":6462,"##люми":6463,"##66":6464,"память":6465,"самому":6466,"хорошие":6467,"Учитывая":6468,"марш":6469,"бур":6470,"значи":6471,"результаты":6472,"выпуска":6473,"##ряз":6474,"красивый":6475,"события":6476,"хер":6477,"конец":6478,"сын":6479,"промо":6480,"погиб":6481,"ракет":6482,"руками":6483,"пришли":6484,"сообще":6485,"2018":6486,"##ЛА":6487,"причине":6488,"Ребята":6489,"пило":6490,"пяти":6491,"##чали":6492,"вре":6493,"предприя":6494,"назвать":6495,"пришел":6496,"Смотрите":6497,"##казать":6498,"пересе":6499,"шири":6500,"горизон":6501,"com":6502,"прием":6503,"взрос":6504,"комментарии":6505,"##тельств":6506,"##лец":6507,"Израи":6508,"программы":6509,"##фф":6510,"##жие":6511,"##емого":6512,"##льности":6513,"##ющимся":6514,"футбо":6515,"обуч":6516,"##льность":6517,"Ино":6518,"##тность":6519,"саха":6520,"интел":6521,"обладает":6522,"учеб":6523,"##гут":6524,"альбом":6525,"расстре":6526,"технология":6527,"институ":6528,"враг":6529,"##бере":6530,"спор":6531,"убить":6532,"культ":6533,"ата":6534,"##тельную":6535,"##дне":6536,"чьи":6537,"губ":6538,"центр":6539,"пройти":6540,"##дравству":6541,"документа":6542,"жили":6543,"автора":6544,"целью":6545,"цени":6546,"бред":6547,"гости":6548,"това":6549,"##канчи":6550,"шанс":6551,"##ack":6552,"республи":6553,"родители":6554,"измер":6555,"герои":6556,"##креп":6557,"моим":6558,"##кле":6559,"##чена":6560,"pavel":6561,"союз":6562,"улуч":6563,"2008":6564,"расследо":6565,"##тащи":6566,"пить":6567,"Рус":6568,"##димо":6569,"дверь":6570,"аре":6571,"реша":6572,"любит":6573,"##hunt":6574,"взяли":6575,"2009":6576,"забыл":6577,"##торые":6578,"эволю":6579,"Sh":6580,"положении":6581,"еба":6582,"##ела":6583,"пру":6584,"поиграть":6585,"##ват":6586,"##25":6587,"группа":6588,"##дным":6589,"Китай":6590,"##ходили":6591,"вышел":6592,"получили":6593,"##реп":6594,"##лаз":6595,"##суль":6596,"новое":6597,"##муля":6598,"дальней":6599,"выступа":6600,"##циями":6601,"Неу":6602,"кв":6603,"Российской":6604,"транс":6605,"мод":6606,"десяти":6607,"порта":6608,"отличается":6609,"создать":6610,"состояние":6611,"ранее":6612,"ссылку":6613,"##гада":6614,"удара":6615,"##митри":6616,"ошиба":6617,"pavelhunt":6618,"Фа":6619,"гов":6620,"##вным":6621,"лучшая":6622,"нап":6623,"отста":6624,"ассоциа":6625,"минусы":6626,"33":6627,"запо":6628,"яко":6629,"##тию":6630,"вещь":6631,"незна":6632,"стояла":6633,"Тур":6634,"организации":6635,"вашу":6636,"составляет":6637,"##ретий":6638,"запро":6639,"изба":6640,"сотни":6641,"##ланд":6642,"Ники":6643,"теку":6644,"словами":6645,"современном":6646,"вода":6647,"веру":6648,"однозна":6649,"##вана":6650,"испыта":6651,"2000":6652,"непреры":6653,"##тков":6654,"Зву":6655,"##влять":6656,"короб":6657,"##пку":6658,"2011":6659,"хорошего":6660,"первым":6661,"солнца":6662,"статисти":6663,"##Са":6664,"##нар":6665,"##мяти":6666,"Никол":6667,"алюми":6668,"##пределение":6669,"симво":6670,"рису":6671,"митин":6672,"%,":6673,"будущее":6674,"##бран":6675,"идеи":6676,"Лучше":6677,"##ите":6678,"Нью":6679,"наме":6680,"пытается":6681,"##ственную":6682,"##64":6683,"знали":6684,"концов":6685,"животных":6686,"##рина":6687,"развит":6688,"началь":6689,"##риться":6690,"тонн":6691,"посы":6692,"книгу":6693,"Земли":6694,"отключа":6695,"серии":6696,"жу":6697,"##ремя":6698,"бази":6699,"моби":6700,"просмот":6701,"##вку":6702,"Опять":6703,"Надеюсь":6704,"смотрел":6705,"##ip":6706,"существу":6707,"начи":6708,"молоды":6709,"здра":6710,"лам":6711,"уша":6712,"полноц":6713,"##мут":6714,"науки":6715,"несо":6716,"##лое":6717,"учё":6718,"прочая":6719,"##носи":6720,"класса":6721,"ожида":6722,"2012":6723,"строить":6724,"порядок":6725,"здоро":6726,"неуда":6727,"осуще":6728,"##бес":6729,"##пора":6730,"пласти":6731,"куп":6732,"единственный":6733,"суда":6734,"ответа":6735,"##ербур":6736,"волну":6737,"Каждый":6738,"пошел":6739,"худож":6740,"смогли":6741,"начинается":6742,"деятельности":6743,"добавить":6744,"Зюганов":6745,"утром":6746,"высок":6747,"##дум":6748,"моем":6749,"##деми":6750,"зарабаты":6751,"пала":6752,"Един":6753,"Al":6754,"32":6755,"личности":6756,"Пути":6757,"##хожу":6758,"подумал":6759,"стату":6760,"##началу":6761,"специальные":6762,"генер":6763,"плат":6764,"##под":6765,"страте":6766,"сравнению":6767,"мужчина":6768,"броса":6769,"прочих":6770,"вход":6771,"сва":6772,"##коле":6773,"КП":6774,"откров":6775,"##чиво":6776,"нез":6777,"##шили":6778,"долю":6779,"чёр":6780,"дека":6781,"отправил":6782,"##еру":6783,"верх":6784,"##кля":6785,"играх":6786,"##ьми":6787,"стр":6788,"трени":6789,"круто":6790,"успокои":6791,"стороне":6792,"##КС":6793,"остается":6794,"##НЫ":6795,"иллю":6796,"нашем":6797,"плохи":6798,"##илл":6799,"наиболее":6800,"##тона":6801,"##эт":6802,"распростран":6803,"справедливо":6804,"соверш":6805,"##ведли":6806,"##опа":6807,"##гаются":6808,"&#":6809,"встреч":6810,"медицин":6811,"вероятно":6812,"твор":6813,"страшно":6814,"беспокой":6815,"жителей":6816,"##out":6817,"##тыми":6818,"засе":6819,"финансо":6820,"прошу":6821,"ЗА":6822,"сегодняш":6823,"пти":6824,"##--------":6825,"##нным":6826,"моделей":6827,"изменения":6828,"##ИТ":6829,"реж":6830,"обойтись":6831,"##ватель":6832,"Ху":6833,"##года":6834,"##шайте":6835,"пеше":6836,"ави":6837,"основе":6838,"##ново":6839,"ини":6840,"ряд":6841,"Пла":6842,"Нем":6843,"Север":6844,"интернете":6845,"оттуда":6846,"наг":6847,"принять":6848,"родителей":6849,"апре":6850,"парке":6851,"##опера":6852,"##лот":6853,"##ини":6854,"Мно":6855,"##кал":6856,"еду":6857,"пассажи":6858,"Боже":6859,"закона":6860,"Много":6861,"смотрю":6862,"журна":6863,"столь":6864,"тури":6865,"начинают":6866,"##луа":6867,"##ствовал":6868,"......":6869,"оз":6870,"пусты":6871,"##эм":6872,"пун":6873,"тера":6874,"средств":6875,"переп":6876,"провод":6877,"контроли":6878,"Спра":6879,"поиска":6880,"Плохо":6881,"подозре":6882,"пункта":6883,"большими":6884,"лин":6885,"рынок":6886,"##стам":6887,"заказ":6888,"описания":6889,"##печа":6890,"впи":6891,"ДН":6892,"Аль":6893,"производителей":6894,"##47":6895,"ответил":6896,"кан":6897,"##честве":6898,"Дмитри":6899,"лит":6900,"комфортно":6901,"Гор":6902,"буквально":6903,"##стери":6904,"корич":6905,"дыру":6906,"##бовал":6907,"количества":6908,"попробовать":6909,"действий":6910,"памяти":6911,"Проблем":6912,"образование":6913,"пис":6914,"##ваемся":6915,"##хую":6916,"вон":6917,"разработ":6918,"ощущение":6919,"##тится":6920,"##оо":6921,"частности":6922,"софт":6923,"мозга":6924,"##вшихся":6925,"фотошо":6926,"бре":6927,"кача":6928,"отлич":6929,"попробу":6930,"понимают":6931,"##град":6932,"##чность":6933,"заранее":6934,"правительство":6935,"кадр":6936,"перевод":6937,"##щийся":6938,"счёт":6939,"теря":6940,"исключение":6941,"Знаешь":6942,"##ьет":6943,"Сначала":6944,"ссылке":6945,"##гию":6946,"##вато":6947,"показывает":6948,"связь":6949,"игр":6950,"предыдущих":6951,"моро":6952,"подка":6953,"добы":6954,"варианте":6955,"29":6956,"##лево":6957,"вво":6958,"подска":6959,"религиоз":6960,"разговор":6961,"расскажет":6962,"нрав":6963,"2007":6964,"играю":6965,"##рится":6966,"##жного":6967,"соблю":6968,"##доби":6969,"остров":6970,"Человек":6971,"семь":6972,"машин":6973,"Програм":6974,"форми":6975,"##рный":6976,"топлива":6977,"##ющихся":6978,"множество":6979,"##разо":6980,"эффективно":6981,"спас":6982,"блин":6983,"Похоже":6984,"оборудо":6985,"##вича":6986,"бит":6987,"авгу":6988,"##орети":6989,"заб":6990,"Москва":6991,"минус":6992,"син":6993,"документы":6994,"ПАР":6995,"ВВ":6996,"кофе":6997,"##дес":6998,"Отде":6999,"провода":7000,"...\"":7001,"глубине":7002,"заши":7003,"un":7004,"сделала":7005,"нём":7006,"вызыва":7007,"##ющую":7008,"кибер":7009,"противопо":7010,"подобные":7011,"Кла":7012,"квартиру":7013,"презента":7014,"каждом":7015,"##ex":7016,"600":7017,"##енс":7018,"##вока":7019,"предмет":7020,"источник":7021,"пикабуш":7022,"Гру":7023,"смеш":7024,"##КИ":7025,"обез":7026,"цита":7027,"заде":7028,"##ax":7029,"лиц":7030,"ездить":7031,"##жны":7032,"помогает":7033,"##ёх":7034,"преда":7035,"партию":7036,"раскры":7037,"##порта":7038,"##кает":7039,"##бит":7040,"##вила":7041,"длина":7042,"Мер":7043,"##еся":7044,"Сред":7045,"русского":7046,"моно":7047,"##ash":7048,"скажет":7049,"##лям":7050,"креп":7051,"пове":7052,"соответственно":7053,"едой":7054,"преступления":7055,"находят":7056,"соответству":7057,"поэ":7058,"Ор":7059,"диск":7060,"фоне":7061,"ситуациях":7062,"боев":7063,"нашу":7064,"удивление":7065,"##стали":7066,"##нений":7067,"исчез":7068,"Огром":7069,"языке":7070,"##няться":7071,"##цом":7072,"##чих":7073,"##змом":7074,"принадле":7075,"Иногда":7076,"##кл":7077,"##ксу":7078,"##лему":7079,"ас":7080,"завяза":7081,"впервые":7082,"семья":7083,"наб":7084,"веду":7085,"характери":7086,"этими":7087,"неви":7088,"##щики":7089,"провед":7090,"памят":7091,"##рец":7092,"заре":7093,"производитель":7094,"Сла":7095,"полной":7096,"##зови":7097,"НО":7098,"карт":7099,"доказать":7100,"полито":7101,"Фор":7102,"##мерно":7103,"##бай":7104,"##ore":7105,"мощный":7106,"Видимо":7107,"автомобиль":7108,"посторон":7109,"вызывает":7110,"паца":7111,"качества":7112,"##ционные":7113,"стат":7114,"##69":7115,"версии":7116,"отвер":7117,"музыка":7118,"рад":7119,"##щают":7120,"нах":7121,"##ОН":7122,"контек":7123,"вое":7124,"развод":7125,"##ode":7126,"Точно":7127,"порт":7128,"Простите":7129,"заслуживает":7130,"##жке":7131,"заканчи":7132,"##гон":7133,"правы":7134,"##ваясь":7135,"любовь":7136,"Кри":7137,"потенци":7138,"##ON":7139,"пиздец":7140,"вернуть":7141,"охра":7142,"##вляю":7143,"большое":7144,"легче":7145,"приходит":7146,"спросить":7147,"трен":7148,"задача":7149,"Ваши":7150,"##джа":7151,"Моя":7152,"рассмотреть":7153,"ЕС":7154,"RT":7155,"движ":7156,"PS":7157,"обстоя":7158,"##чув":7159,"##one":7160,"минима":7161,"христи":7162,"##игры":7163,"дир":7164,"будущем":7165,"2006":7166,"большую":7167,"системе":7168,"##довать":7169,"еже":7170,"внезапно":7171,"##дцать":7172,"идеологи":7173,"могло":7174,"собствен":7175,"##станов":7176,"##ждает":7177,"управления":7178,"обслужи":7179,"резать":7180,"Вроде":7181,"##иса":7182,"##мана":7183,"at":7184,"столи":7185,"##плуа":7186,"Плюс":7187,"линии":7188,"производители":7189,"##жая":7190,"Джей":7191,"##словно":7192,"первое":7193,"попасть":7194,"##кст":7195,"желе":7196,"Сергей":7197,"112":7198,"Неко":7199,"выйти":7200,"##имуще":7201,"сму":7202,"189":7203,"моментально":7204,"мото":7205,"забывайте":7206,"случаев":7207,"годов":7208,"##нё":7209,"Откуда":7210,"##нера":7211,"мировой":7212,"Москов":7213,"##тился":7214,"кажды":7215,".&":7216,"башни":7217,"политики":7218,"коопера":7219,"USB":7220,"##зой":7221,"тип":7222,"##ian":7223,"##тировать":7224,"##жат":7225,"##нас":7226,"заметил":7227,"загряз":7228,"бесконечно":7229,"Ленин":7230,"транспо":7231,"##ДА":7232,"Бог":7233,"комментарий":7234,"##ong":7235,"напр":7236,"откли":7237,"страшное":7238,"наси":7239,"##ity":7240,"поначалу":7241,"##шала":7242,"пожи":7243,"##рованный":7244,"##тную":7245,"млрд":7246,"##пила":7247,"игровой":7248,"начало":7249,"увеличи":7250,"Первый":7251,"якобы":7252,"##ционный":7253,"##ky":7254,"##ивает":7255,"голос":7256,"##люсь":7257,"кост":7258,"продви":7259,"Пользова":7260,"фору":7261,"2013":7262,"Чего":7263,"пля":7264,"Президен":7265,"ред":7266,"владель":7267,"детстве":7268,"##дравствуйте":7269,"Медведе":7270,"знакомства":7271,"Крем":7272,"##нешься":7273,"озвучи":7274,"затра":7275,"##тиру":7276,"Англи":7277,"доп":7278,"наказа":7279,"планеты":7280,"обещают":7281,"##сред":7282,"доказательства":7283,"фигу":7284,"предела":7285,"процентов":7286,"заявляет":7287,"отказ":7288,"Бар":7289,"Оно":7290,"моё":7291,"##летка":7292,"ответственность":7293,"душе":7294,"интервью":7295,"уво":7296,"фир":7297,"фай":7298,"использовании":7299,"француз":7300,"парня":7301,"##ющиеся":7302,"##qu":7303,"успеш":7304,"##лера":7305,"отношении":7306,"##пись":7307,"вну":7308,"отправ":7309,"оскорб":7310,"##рку":7311,"умира":7312,"##24":7313,"скоростью":7314,"чувства":7315,"агент":7316,"указ":7317,"инду":7318,"светодио":7319,"Был":7320,"присо":7321,"организа":7322,"##поте":7323,"##таль":7324,"##дри":7325,"поки":7326,"земле":7327,"понравились":7328,"вернуться":7329,"останется":7330,"Комп":7331,"коммер":7332,"##65":7333,"давать":7334,"Джо":7335,"Гит":7336,"Короче":7337,"блоки":7338,"##ъяс":7339,"Ад":7340,"темы":7341,"AS":7342,"##крою":7343,"кури":7344,"народу":7345,"##77":7346,"население":7347,"факту":7348,"##кри":7349,"\"...":7350,"##________________":7351,"##бочки":7352,"##ченные":7353,"уника":7354,"посты":7355,"обладают":7356,"уточ":7357,"Род":7358,"настраи":7359,"##лога":7360,"##сторо":7361,"НАСА":7362,"хит":7363,"##стере":7364,"кресла":7365,"!-":7366,"Тоже":7367,"##РИ":7368,"следова":7369,"настоящий":7370,"Дей":7371,"круг":7372,"Джон":7373,"гряз":7374,"##зис":7375,"фрон":7376,"сложи":7377,"подписа":7378,"дождя":7379,"увы":7380,"языка":7381,"##телю":7382,"Ваш":7383,"##рованные":7384,"Жириновского":7385,"бел":7386,"##68":7387,"берег":7388,"небольшой":7389,"рода":7390,"считается":7391,"ракета":7392,"темноте":7393,"опубли":7394,"удар":7395,"##ДД":7396,"молод":7397,"пытаются":7398,"называют":7399,"записать":7400,"форме":7401,"##ционной":7402,"программа":7403,"заку":7404,"Вся":7405,"астро":7406,"обосно":7407,"\")":7408,"международ":7409,"Япо":7410,"ru":7411,"стандарты":7412,"статья":7413,"##гайте":7414,"дерь":7415,"испыты":7416,"крова":7417,"##нтов":7418,"разумеется":7419,"рабочее":7420,"войне":7421,"вынужд":7422,"остро":7423,"высота":7424,"превы":7425,"Госу":7426,"спло":7427,"зали":7428,"проблему":7429,"обеспечение":7430,"усили":7431,"отца":7432,"##нией":7433,"выдержа":7434,"фар":7435,"цифры":7436,"бле":7437,"интереса":7438,"##мере":7439,"знания":7440,"шир":7441,"предлож":7442,"относится":7443,"жесто":7444,"##плы":7445,"##ждений":7446,"##рост":7447,"красоту":7448,"##ony":7449,"моря":7450,"принято":7451,"подобных":7452,"протя":7453,"середи":7454,"##чают":7455,"##лови":7456,"хот":7457,"вещей":7458,"Каз":7459,"ночи":7460,"##чается":7461,"##гани":7462,"такси":7463,"которыми":7464,"##истов":7465,"Кол":7466,"##io":7467,"##альную":7468,"Бри":7469,"Ана":7470,"эр":7471,"Лен":7472,"вешать":7473,"основан":7474,"##алов":7475,"смогу":7476,"игре":7477,"строитель":7478,"карты":7479,"арен":7480,"съе":7481,"муль":7482,"обща":7483,"бара":7484,"Главное":7485,"##тация":7486,"##оте":7487,"массы":7488,"##зий":7489,"дока":7490,"##лению":7491,"##зки":7492,"Петербур":7493,"регион":7494,"##зовать":7495,"простите":7496,"##рике":7497,"##лона":7498,"здорово":7499,"##вшиеся":7500,"импери":7501,"сериа":7502,"Три":7503,"поступа":7504,"##pp":7505,"дорог":7506,"##ань":7507,"##дий":7508,"##дию":7509,"суп":7510,"выпла":7511,"##пп":7512,"таре":7513,"ву":7514,"двумя":7515,"рассказ":7516,"водитель":7517,"##стый":7518,"##ейн":7519,"мужик":7520,"##тием":7521,"оружия":7522,"##мит":7523,"блю":7524,"постра":7525,"лишнего":7526,"преимуще":7527,"кухо":7528,"оставить":7529,"баз":7530,"##вос":7531,"Маль":7532,"##служ":7533,"войска":7534,"Пря":7535,"##ust":7536,"ой":7537,"##оном":7538,"фун":7539,"Расска":7540,"порядка":7541,"Поверьте":7542,"приятный":7543,"заявление":7544,"##ate":7545,"##страя":7546,"наклон":7547,"Восто":7548,"мани":7549,"Пожалуйста":7550,"мотивация":7551,"понравилось":7552,"доктор":7553,"нужного":7554,"секунд":7555,"удобный":7556,"соблаз":7557,"правосла":7558,"сохран":7559,"эксплуа":7560,"сказ":7561,"##ённых":7562,"РО":7563,"решать":7564,"клави":7565,"геймплей":7566,"новая":7567,"##рк":7568,"говорится":7569,"Ген":7570,"##нную":7571,"онлайн":7572,"##рабаты":7573,"рост":7574,"агресси":7575,"##рованы":7576,"космонав":7577,"##ходе":7578,"понимает":7579,"общество":7580,"##роятно":7581,"подели":7582,"##гка":7583,"распростра":7584,"Джем":7585,"##мену":7586,"талан":7587,"опровер":7588,"коль":7589,"Фин":7590,"ник":7591,"as":7592,"движение":7593,"сворачи":7594,"##зили":7595,"##делок":7596,"##езда":7597,"приви":7598,"ассоциации":7599,"##совать":7600,"##жены":7601,"благодар":7602,"шоу":7603,"институт":7604,"##ark":7605,"сго":7606,"сут":7607,"жил":7608,"новость":7609,"вывод":7610,"запись":7611,"##анс":7612,"забра":7613,"университ":7614,"Це":7615,"видела":7616,"##рованных":7617,"папа":7618,"Ar":7619,"##ессу":7620,"кровь":7621,"##тр":7622,"Извините":7623,"перели":7624,"фильмы":7625,"воздей":7626,"повода":7627,"книга":7628,"кресле":7629,"##жаю":7630,"дев":7631,"принимать":7632,"##чности":7633,"ребён":7634,"освободить":7635,"спать":7636,"сидит":7637,"останов":7638,"Зап":7639,"называть":7640,"##пто":7641,"##бах":7642,"##se":7643,"##пуль":7644,"фанаты":7645,"проч":7646,"##вета":7647,"квадра":7648,"лежит":7649,"##бал":7650,"Пользователь":7651,"лоша":7652,"виноват":7653,"Ах":7654,"##сите":7655,"спасает":7656,"ВО":7657,"подобное":7658,"99":7659,"делится":7660,"землю":7661,"Крыма":7662,"сломать":7663,"##рид":7664,"напо":7665,"##чений":7666,"##ляли":7667,"миров":7668,"факты":7669,"свидетель":7670,"вероятность":7671,"желания":7672,"культур":7673,"##orm":7674,"##of":7675,"приятнее":7676,"Зат":7677,"большим":7678,"бело":7679,"стаби":7680,"##ТИ":7681,"##вшийся":7682,"Одно":7683,"задней":7684,"школу":7685,"##man":7686,"Ваша":7687,"##23":7688,"PI":7689,"регистра":7690,"нега":7691,"Текст":7692,"требует":7693,"старый":7694,"Донба":7695,"##роприя":7696,"##фов":7697,"зату":7698,"тихо":7699,"##шко":7700,"покупателя":7701,"##ставкой":7702,"Государ":7703,"синдро":7704,"перспекти":7705,"перерас":7706,"Федерации":7707,"жалко":7708,"##вности":7709,"пром":7710,"встрети":7711,"##дятся":7712,"эпо":7713,"##сам":7714,"повре":7715,"чере":7716,"Поз":7717,"делаешь":7718,"полтора":7719,"хорошее":7720,"Верх":7721,"##смена":7722,"##виться":7723,"Тот":7724,"ставится":7725,"##порти":7726,"впечатление":7727,"Куда":7728,"ресто":7729,"##читайте":7730,"##бий":7731,"##пустил":7732,"Старый":7733,"расти":7734,"фотографиях":7735,"Маск":7736,"ТО":7737,"российской":7738,"##петь":7739,"подумать":7740,"держать":7741,"инициа":7742,"головы":7743,"смартфона":7744,"прокла":7745,"##ляется":7746,"##читься":7747,"##дически":7748,"лагер":7749,"##жевый":7750,"##sh":7751,"понятное":7752,"разда":7753,"День":7754,"стул":7755,"неправильно":7756,"статье":7757,"##йки":7758,"800":7759,"Фото":7760,"Благо":7761,"освещение":7762,"##пенно":7763,"описы":7764,"Кана":7765,"настроить":7766,"зага":7767,"##нила":7768,"##села":7769,"##ВД":7770,"##летки":7771,"рано":7772,"##кожи":7773,"Ой":7774,"поменя":7775,"принципи":7776,"##ело":7777,"воспита":7778,"##all":7779,"финанси":7780,"ничем":7781,"вред":7782,"##ваны":7783,"приятное":7784,"ножки":7785,"Интер":7786,"##кер":7787,"цене":7788,"долгу":7789,"полезен":7790,"надежность":7791,"опыта":7792,"немно":7793,"извините":7794,"##меров":7795,"возраста":7796,"Насколько":7797,"оценил":7798,"либ":7799,"##жала":7800,"сидите":7801,"общего":7802,"##Ре":7803,"##цеду":7804,"причин":7805,"намер":7806,"##джи":7807,"Же":7808,"##мас":7809,"третий":7810,"##вец":7811,"##отов":7812,"пластика":7813,"голова":7814,"миру":7815,"справи":7816,"##ционных":7817,"оке":7818,"##ровка":7819,"##ссий":7820,"##ire":7821,"##нению":7822,"##вига":7823,"tit":7824,"уси":7825,"31":7826,"Скорее":7827,"видит":7828,"##ане":7829,"##BU":7830,"числа":7831,"##рела":7832,"характ":7833,"односторон":7834,"КА":7835,"стреми":7836,"поступ":7837,"##дито":7838,"точнее":7839,"максимум":7840,"тес":7841,"возраст":7842,"##rey":7843,"##тья":7844,"футбол":7845,"ярких":7846,"ано":7847,"село":7848,"##никах":7849,"прино":7850,"##уре":7851,"##ёв":7852,"Стран":7853,"получать":7854,"##логии":7855,"##зил":7856,"защит":7857,"согласно":7858,"удобная":7859,"получает":7860,"Два":7861,"##хая":7862,"янва":7863,"мероприя":7864,"##гото":7865,"второго":7866,"выключить":7867,"возму":7868,"##ДИ":7869,"инт":7870,"фактически":7871,"конкуренты":7872,"неб":7873,"##ail":7874,"застави":7875,"степ":7876,"42":7877,"пенсион":7878,"узнал":7879,"##ess":7880,"зовут":7881,"теорети":7882,"дем":7883,"контр":7884,"летом":7885,"цветами":7886,"ходе":7887,"##пании":7888,"проекта":7889,"##St":7890,"занимается":7891,"##рист":7892,"лени":7893,"мастер":7894,"##пти":7895,"виновен":7896,"##ьез":7897,"собак":7898,"Обра":7899,"ввер":7900,"остались":7901,"##евра":7902,"эн":7903,"поо":7904,"эксперимента":7905,"скор":7906,"##невые":7907,"видеоза":7908,")?":7909,"##номика":7910,"задницы":7911,"нету":7912,"144":7913,"договор":7914,"##75":7915,"кредит":7916,"):":7917,"##ock":7918,"##шусь":7919,"хри":7920,"непосред":7921,"представлен":7922,"производство":7923,"##нек":7924,"##пал":7925,"##щер":7926,"маг":7927,"##зей":7928,"фер":7929,"##хал":7930,"статью":7931,"скидка":7932,"дышит":7933,"##РУ":7934,"Game":7935,"процессе":7936,"электрон":7937,"##зме":7938,"##ейсбо":7939,"##кнов":7940,"гаджет":7941,"превращаются":7942,"##zh":7943,"остался":7944,"констру":7945,"миллиона":7946,"однозначно":7947,"аги":7948,"выходу":7949,"слегка":7950,"монитора":7951,"РА":7952,"проход":7953,"заинтересо":7954,"##ровала":7955,"подряд":7956,"##уса":7957,"прошлого":7958,"Таким":7959,"соли":7960,"владе":7961,"чувак":7962,"Здравствуйте":7963,"тарелки":7964,"##ену":7965,"каз":7966,"##стики":7967,"##ith":7968,"развали":7969,"сезон":7970,"Реак":7971,"it":7972,"Ему":7973,"рав":7974,"автома":7975,"материалами":7976,"прик":7977,"бесполез":7978,"требования":7979,"сове":7980,"##кнуть":7981,"##стные":7982,"##бери":7983,"высказыва":7984,"Петербург":7985,"бейсбо":7986,"##ox":7987,"##щими":7988,"вторая":7989,"##тало":7990,"красиво":7991,"экономики":7992,"строго":7993,"188":7994,"прикры":7995,"проходит":7996,"директор":7997,"адвока":7998,"##гнуть":7999,"Лето":8000,"видим":8001,"##ect":8002,"комплекта":8003,"дес":8004,"кара":8005,"шла":8006,"любые":8007,"газо":8008,"##ровое":8009,"чё":8010,"##бельно":8011,"кафе":8012,"произвед":8013,"отдельно":8014,"умеет":8015,"##ord":8016,"упоминать":8017,"2005":8018,"операции":8019,"Такие":8020,"that":8021,"твер":8022,"губер":8023,"##Для":8024,"симметри":8025,"резко":8026,"##ula":8027,"свинья":8028,"##EC":8029,"##тности":8030,"##гну":8031,"подходит":8032,"встрет":8033,"Многие":8034,"##mer":8035,"##lex":8036,"отправляли":8037,"головой":8038,"посмотрел":8039,"тен":8040,"##IF":8041,"сила":8042,"труд":8043,"##цент":8044,"препара":8045,"близко":8046,"открыт":8047,"##льци":8048,"пункт":8049,"заключа":8050,"неожида":8051,"прож":8052,"россиян":8053,"кабеля":8054,"схоже":8055,"заявлению":8056,"##ждая":8057,"лев":8058,"любви":8059,"##зок":8060,"снять":8061,"дополнительное":8062,"полупро":8063,"шумо":8064,"дай":8065,"решить":8066,"граф":8067,"основной":8068,"необы":8069,"##вшим":8070,"Навальный":8071,"pro":8072,"##пустили":8073,"крутым":8074,"##уэ":8075,"##ляция":8076,"квартиры":8077,"зах":8078,"независимой":8079,"##лыми":8080,"ступень":8081,"хро":8082,"##bat":8083,"##сия":8084,"задумываться":8085,"звуком":8086,"##тивности":8087,"административ":8088,"ширина":8089,"проблемам":8090,"##ьер":8091,"настоящее":8092,"##влет":8093,"Аз":8094,"акс":8095,"семье":8096,"двор":8097,"##нкт":8098,"развитие":8099,"собираюсь":8100,"повезло":8101,"причины":8102,"осуществ":8103,"очереди":8104,"трудо":8105,"алюминия":8106,"##пя":8107,"sp":8108,"состоит":8109,"2004":8110,"мощным":8111,"##менять":8112,"Цент":8113,"##шется":8114,"##rid":8115,"186":8116,"пришла":8117,"##шина":8118,"двой":8119,"подпис":8120,"выхода":8121,"##мное":8122,"##бург":8123,"рассказал":8124,"мона":8125,"статьям":8126,"##ада":8127,"глазами":8128,"##мового":8129,"сопроти":8130,"ошибки":8131,"Союз":8132,"##тех":8133,"рама":8134,"хво":8135,"сэр":8136,"Госпо":8137,"однажды":8138,"вашем":8139,"##ковь":8140,"школьных":8141,"##кадеми":8142,"инте":8143,"спустя":8144,"ушах":8145,"процеду":8146,"деревня":8147,"галакти":8148,"##хвата":8149,"##бель":8150,"целый":8151,"обеспечивают":8152,"красоте":8153,"Юра":8154,"Ск":8155,"колба":8156,"самостоятельно":8157,"идеальное":8158,"ща":8159,"льви":8160,"повод":8161,"любую":8162,"посмотрите":8163,"обзора":8164,"уйти":8165,"точку":8166,"зарядку":8167,"звучит":8168,"положение":8169,"особы":8170,"Союза":8171,"поместить":8172,"удовольствием":8173,"отказыва":8174,"строй":8175,"##джетом":8176,"Каково":8177,"труда":8178,"##ницей":8179,"почитать":8180,"найд":8181,"самона":8182,"политика":8183,"Компьютер":8184,"солдат":8185,"дорогим":8186,"вниз":8187,"неудоб":8188,"задума":8189,"правду":8190,"взаимодей":8191,"заря":8192,"##ложили":8193,"##рали":8194,"##дную":8195,"##ковать":8196,"##ченных":8197,"пробел":8198,"прой":8199,"падали":8200,"разницы":8201,"налоги":8202,"дете":8203,"##хло":8204,"##MR":8205,"##чатые":8206,"думала":8207,"смотря":8208,"пробить":8209,"120":8210,"##ссы":8211,"проез":8212,"сложнее":8213,"##uc":8214,"пульт":8215,"необходимости":8216,"wh":8217,"##сятся":8218,"бойтесь":8219,"мусором":8220,"##тонной":8221,"обраща":8222,"тяж":8223,"интеллек":8224,"rel":8225,"делу":8226,"II":8227,"спрятаться":8228,"##ченный":8229,"##казал":8230,"##утся":8231,"эп":8232,"##рес":8233,"##льному":8234,"МО":8235,"вру":8236,"бокам":8237,"быстрая":8238,"разрешением":8239,"36":8240,"обычный":8241,"##aw":8242,"американцы":8243,"##рур":8244,"Сло":8245,"земля":8246,"##хождения":8247,"##уда":8248,"##коду":8249,"успешно":8250,"сравнивать":8251,"наличие":8252,"предложение":8253,"пож":8254,"##дач":8255,"ищ":8256,"берем":8257,"##нулись":8258,"##делы":8259,"табли":8260,"роман":8261,"фло":8262,"ex":8263,"сильнее":8264,"нормальный":8265,"##отно":8266,"прай":8267,"Space":8268,"##ator":8269,"больших":8270,"врач":8271,"чле":8272,"двигатель":8273,"Отличное":8274,"игно":8275,"миллион":8276,"##рои":8277,"аксессу":8278,"готовое":8279,"##ber":8280,"заве":8281,"глоба":8282,"ступени":8283,"задачи":8284,"распоряжаться":8285,"выпуск":8286,"бог":8287,"воров":8288,"взят":8289,"##дности":8290,"восток":8291,"##изм":8292,"Глав":8293,"эрго":8294,"преми":8295,"обнов":8296,"##енную":8297,"хаб":8298,"смотрите":8299,"##надца":8300,"##тт":8301,"своём":8302,"зарплаты":8303,"##вестно":8304,"зас":8305,"ПАРНА":8306,"изда":8307,"светя":8308,"февра":8309,"детям":8310,"##ковый":8311,"##жом":8312,"говоришь":8313,"##менте":8314,"лужа":8315,"Сдела":8316,"девя":8317,"защиты":8318,"Рей":8319,"гумани":8320,"предостере":8321,"компом":8322,"##доров":8323,"адрес":8324,"звер":8325,"границы":8326,"Автор":8327,"нечто":8328,"появился":8329,"лучший":8330,"отвечать":8331,"##жих":8332,"помехи":8333,"идиот":8334,"свали":8335,"заму":8336,"доброт":8337,"дешевого":8338,"удивил":8339,"мм":8340,"появились":8341,"Второй":8342,"title":8343,"##жается":8344,"истери":8345,"##кур":8346,"боковых":8347,"едином":8348,"впереме":8349,"рук":8350,"##лат":8351,"немалова":8352,"тупы":8353,"топ":8354,"нигде":8355,"##тиков":8356,"соглас":8357,"подсве":8358,"попыта":8359,"парамет":8360,"британ":8361,"яркость":8362,"187":8363,"##щено":8364,"##KA":8365,"смогут":8366,"парков":8367,"кня":8368,"загрязнения":8369,"указыва":8370,"##жил":8371,"##ксе":8372,"университет":8373,"военных":8374,"свободы":8375,"##лял":8376,"инвали":8377,"##гнал":8378,"техническом":8379,"##роз":8380,"##грал":8381,"попал":8382,"##фига":8383,"##ure":8384,"ура":8385,"вида":8386,"##ленным":8387,"Аб":8388,"Звук":8389,"##жную":8390,"написали":8391,"##жок":8392,"посмотришь":8393,"уменьшает":8394,"неадекватно":8395,"полет":8396,"##Пи":8397,"поезд":8398,"синдрома":8399,"мониторы":8400,"пута":8401,"большинстве":8402,"частью":8403,"убирает":8404,"фильме":8405,"##яться":8406,"##унд":8407,"прось":8408,"Мор":8409,"прежним":8410,"самоу":8411,"!»":8412,"рассчитывает":8413,"думает":8414,"завод":8415,"интернета":8416,"вышло":8417,"##зами":8418,"##33":8419,"F1":8420,"оформ":8421,"опа":8422,"ведете":8423,"##щений":8424,"мс":8425,"водой":8426,"арт":8427,"##ровой":8428,"am":8429,"учитывая":8430,"##опас":8431,"##рень":8432,"Сталин":8433,"сдвинуть":8434,"русском":8435,"замах":8436,"даст":8437,"крючок":8438,"Дальше":8439,"таб":8440,"##rit":8441,"Корпус":8442,"2001":8443,"крошки":8444,"##ждении":8445,"залете":8446,"тря":8447,"Кита":8448,"Население":8449,"or":8450,"отклика":8451,"##зрачная":8452,"элемента":8453,"вперемешку":8454,"уборки":8455,"##outube":8456,"Уч":8457,"Украину":8458,"экономит":8459,"матер":8460,"подвер":8461,"##шками":8462,"##бовав":8463,"хрен":8464,"le":8465,"XI":8466,"##ade":8467,"зимой":8468,"гл":8469,"##ехала":8470,"регулярно":8471,"стенках":8472,"мнения":8473,"станции":8474,"мал":8475,"большинства":8476,"##тила":8477,"##пило":8478,"версия":8479,"подсветки":8480,"изменить":8481,"##люби":8482,"большей":8483,"резиновые":8484,"страхо":8485,"жар":8486,"понадоби":8487,"##ционного":8488,"Огромный":8489,"непонятная":8490,"девайса":8491,"Иначе":8492,"оценят":8493,"наука":8494,"пох":8495,"последова":8496,"Зо":8497,"объедин":8498,"##шими":8499,"прок":8500,"очевидного":8501,"поху":8502,"Запа":8503,"клавиши":8504,"##вающимся":8505,"громкости":8506,"##млю":8507,"ТВ":8508,"Нема":8509,"троне":8510,"спросил":8511,"местных":8512,"##дке":8513,"голу":8514,"##act":8515,"режимах":8516,"оправдывают":8517,"##жий":8518,"нажатия":8519,"девайсов":8520,"беспокойства":8521,"умо":8522,"полноценное":8523,"заметен":8524,"Далее":8525,"зри":8526,"XV":8527,"расположенные":8528,"##дник":8529,"Юж":8530,"пользуешься":8531,"концеп":8532,"##лизм":8533,"правительства":8534,"Понима":8535,"HDR":8536,"##вуха":8537,"##ерии":8538,"##кола":8539,"сор":8540,"убийства":8541,"нев":8542,"разби":8543,"поведение":8544,"цветовой":8545,"##мите":8546,"ном":8547,"Европы":8548,"свисте":8549,"менеджмента":8550,"выро":8551,"38":8552,"публика":8553,"вока":8554,"библи":8555,"недель":8556,"ню":8557,"раб":8558,"щи":8559,"палит":8560,"доверял":8561,"##спомина":8562,"дочь":8563,"привычное":8564,"Кам":8565,"сомнительная":8566,"упомянутые":8567,"##онеров":8568,"отс":8569,"##лекс":8570,"команды":8571,"еп":8572,"торгов":8573,"замечаний":8574,"##дним":8575,"##76":8576,"вставки":8577,"##Гла":8578,"представляем":8579,"содро":8580,"построить":8581,".(":8582,"паля":8583,"хлопка":8584,"##гети":8585,"мокрой":8586,"нос":8587,"проверя":8588,"отключает":8589,"роста":8590,"системных":8591,"геймпад":8592,"Апол":8593,"конфлик":8594,"льется":8595,"горкой":8596,"Мин":8597,"нока":8598,"основании":8599,"аккура":8600,"пикабушников":8601,"##кидываться":8602,"клевые":8603,"посторонние":8604,"нашим":8605,"##шается":8606,"свечение":8607,"кухонный":8608,"пресс":8609,"##пев":8610,"проводами":8611,"##рации":8612,"пульта":8613,"плен":8614,"990":8615,"парла":8616,"Проблема":8617,"Мон":8618,"свобод":8619,"провин":8620,"удивля":8621,"останавли":8622,"отделяет":8623,"Солн":8624,"##вид":8625,"##метный":8626,"кооперации":8627,"Вз":8628,"##бир":8629,"выйдет":8630,"Поток":8631,"сексу":8632,"##ритет":8633,"фла":8634,"базируются":8635,"Некоторые":8636,"слома":8637,"слушать":8638,"зал":8639,"##никей":8640,"километров":8641,"ценится":8642,"СП":8643,"канав":8644,"сби":8645,"коробочки":8646,"##ани":8647,"##ключатели":8648,"норм":8649,"эксе":8650,"достиг":8651,"двери":8652,"выводы":8653,"Могу":8654,"Тер":8655,"##леть":8656,"##шении":8657,"грамот":8658,"##пля":8659,"англ":8660,"сбо":8661,"играет":8662,"Олимп":8663,"немаловажно":8664,"##хой":8665,"Волна":8666,"отзы":8667,"двое":8668,"довери":8669,"механическая":8670,"сводят":8671,"стримов":8672,"пригодился":8673,"катастро":8674,"прочита":8675,"пожалуй":8676,"привлекательно":8677,"##гро":8678,"книг":8679,"Аф":8680,"видеоигры":8681,"##жности":8682,"клаву":8683,"значение":8684,"страхов":8685,"корабль":8686,"соц":8687,"загляните":8688,"шумы":8689,"стильный":8690,"коричневая":8691,"души":8692,"##ленную":8693,"конструкцией":8694,"##ивал":8695,"вставая":8696,"##Сейчас":8697,"перераспределение":8698,"курс":8699,"##рична":8700,"##телось":8701,"Спира":8702,"честь":8703,"судеб":8704,"настраивается":8705,"карь":8706,"блок":8707,"половина":8708,"прокладка":8709,"продукты":8710,"ниж":8711,"34":8712,"биологи":8713,"орбиту":8714,"светодиод":8715,"сказано":8716,"огней":8717,"вспомнить":8718,"перерывы":8719,"##вляющим":8720,"виртуальном":8721,"бокала":8722,"сериаль":8723,"паспо":8724,"соль":8725,"подарок":8726,"игровом":8727,"среднем":8728,"напролет":8729,"паралле":8730,"And":8731,"убил":8732,"львиную":8733,"надежной":8734,"кликов":8735,"##РЕ":8736,"мелочами":8737,"4K":8738,"Мышь":8739,"выдви":8740,"Всегда":8741,"радугу":8742,"##рэ":8743,"официально":8744,"Дэ":8745,"заслу":8746,"исполни":8747,"нарисо":8748,"девушки":8749,"влажной":8750,"гарантируют":8751,"киберспорт":8752,"детали":8753,"картинки":8754,"55":8755,"##ровано":8756,"нере":8757,"обозна":8758,"Ед":8759,"скользить":8760,"типичную":8761,"предостеречь":8762,"лидер":8763,"массивной":8764,"левша":8765,"Бес":8766,"стари":8767,"лепили":8768,"сига":8769,"грязе":8770,"##рор":8771,"аксессуаров":8772,"конс":8773,"ФС":8774,"2002":8775,"##вли":8776,"Софт":8777,"гладкой":8778,"забыли":8779,"мра":8780,"геймпада":8781,"процент":8782,"проигрываем":8783,"олигар":8784,"выдержат":8785,"находятся":8786,"сборной":8787,"стальная":8788,"фей":8789,"команди":8790,"##стера":8791,"Mode":8792,"стример":8793,"виртуальным":8794,"путин":8795,"мышек":8796,"мяса":8797,"праздничного":8798,"цену":8799,"пожелаете":8800,"сына":8801,"##деров":8802,"Ори":8803,"ант":8804,"Никитин":8805,"ореол":8806,"Джемини":8807,"магазине":8808,"бытовуха":8809,"отрегулировать":8810,"##нём":8811,"Кому":8812,"непрерывное":8813,"##тю":8814,"Спираль":8815,"пору":8816,"нокаут":8817,"набор":8818,"знакомых":8819,"подставки":8820,"пойдет":8821,"геймера":8822,"гладкий":8823,"впишется":8824,"шесть":8825,"Алексей":8826,"оху":8827,"щелчку":8828,"стримить":8829,"##чим":8830,"говорила":8831,"скрою":8832,"едро":8833,"постепенно":8834,"лен":8835,"налого":8836,"станов":8837,"Combat":8838,"Радар":8839,"коврике":8840,"Дыхание":8841,"An":8842,"##кипе":8843,"эргономика":8844,"промышленно":8845,"выполн":8846,"пс":8847,"бессмыс":8848,"постанов":8849,"##пот":8850,"##дность":8851,"правша":8852,"озвучиваю":8853,"37":8854,"##гр":8855,"напомни":8856,"Ace":8857,"Франции":8858,"Судя":8859,"светящийся":8860,"вдо":8861,"перделок":8862,"христиан":8863,"свистелок":8864,"физ":8865,"##ary":8866,"шах":8867,"уточек":8868,"затухание":8869,"изголов":8870,"соблазнов":8871,"моск":8872,"##скос":8873,"цел":8874,"мовето":8875,"##ere":8876,"##влений":8877,"канавки":8878,"скольжение":8879,"вставка":8880,"подкасты":8881,"детьми":8882,"Отдельного":8883,"уважающая":8884,"сериальчик":8885,"переливается":8886,"start":8887,"математи":8888,"любое":8889,"##ECH":8890,"##рач":8891,"зашиты":8892,"Вен":8893,"Капли":8894,"состо":8895,"Ответ":8896,"схожего":8897,"##МА":8898,"моветоном":8899,"нажатий":8900,"Кан":8901,"##головым":8902,"##Самое":8903,"менеджментом":8904,"Немалова":8905,"Дже":8906,"определяющей":8907,"Подсвет":8908,"Никогда":8909,"рынке":8910,"арест":8911,"##долго":8912,"Пульса":8913,"##никейщик":8914,"##ass":8915,"палитры":8916,"бороться":8917,"перем":8918,"раздра":8919,"##бар":8920,"муда":8921,"жан":8922,"успокоишься":8923,"задумываемся":8924,"часы":8925,"##стных":8926,"Прошу":8927,"вариантов":8928,"бежевый":8929,"##разуме":8930,"хотке":8931,"##алы":8932,"подставкой":8933,"СанПи":8934,"гг":8935,"градусов":8936,"подсвечивать":8937,"хрипы":8938,"шумопода":8939,"ладят":8940,"результативности":8941,"Механическая":8942,"Игровая":8943,"##//":8944,"Оба":8945,"сделано":8946,"гаджетом":8947,"бейсболки":8948,"переписи":8949,"симметричная":8950,"Программное":8951,"##скорде":8952,"односторонних":8953,"щелчки":8954,"собесе":8955,"СанПиН":8956,"неп":8957,"##тана":8958,"здоровье":8959,"##ходите":8960,"##нями":8961,"##Главное":8962,"собрать":8963,"посёл":8964,"причём":8965,"тканевые":8966,"завязанный":8967,"Цикли":8968,"Механические":8969,"влияет":8970,"свичи":8971,"убивать":8972,"неприметный":8973,"Сирии":8974,"прыгайте":8975,"Ран":8976,"полгода":8977,"F12":8978,"меняется":8979,"Компьютерный":8980,"Попробовав":8981,"килограммового":8982,"презентабельно":8983,"ром":8984,"рев":8985,"корпора":8986,"боюсь":8987,"контак":8988,"Подставка":8989,"Реактивный":8990,"качания":8991,"промокоду":8992,"ночника":8993,"полулежа":8994,"##ходило":8995,"психую":8996,"медленно":8997,"##Пожалуй":8998,"грязевой":8999,"округа":9000,"неле":9001,"навалено":9002,"палящего":9003,"Крючок":9004,"Центр":9005,"Re":9006,"изуч":9007,"обузу":9008,"симметрична":9009,"задевал":9010,"подустали":9011,"##точ":9012,"программируемые":9013,"TECH":9014,"##стили":9015,"оплетка":9016,"Крыму":9017,"НИ":9018,"Навального":9019,"экокожи":9020,"Игровое":9021,"полупрозрачная":9022,"геймерская":9023,"невы":9024,"Оптическая":9025,"Циклическая":9026,"Дискорде":9027,"наверно":9028,"##нилось":9029,"Эникейщик":9030,"холоди":9031,"сетчатые":9032,"Мал":9033,"тканевая":9034,"сельского":9035,"свичей":9036,"##кипа":9037,"##ТЬ":9038,"Ох":9039,"Немаловажный":9040,"##ума":9041,"видеозахвата":9042,"валика":9043,"содрогаются":9044,"стримлю":9045,"киберспортсмена":9046,"сворачиванию":9047,"позиции":9048,"программируемая":9049,"фотошопах":9050,"хоткеев":9051,"подсвета":9052,"hz":9053,"##MRON":9054,"изголовьем":9055,"однотонной":9056,"аэ":9057,"добротными":9058,"юго":9059,"откидываться":9060,"##страивающимся":9061,"амбушюр":9062,"##чив":9063,"##стые":9064,"придётся":9065,"гаджету":9066,"Переключатели":9067,"##5Для":9068,"##ссу":9069,"##KABU":9070,"OMRON":9071,"макросах":9072,"безопас":9073,"залетевшей":9074,"PIKABU":9075,"прорезиненная":9076,"##Редко":9077,"прорезиненные":9078,"Пульсация":9079,"Пользовательский":9080,"полулежачем":9081,"решила":9082,"амбушюрами":9083,"платят":9084,"отрегулируется":9085,"вордах":9086,"Подсветкой":9087,"Осела":9088,"##мотря":9089,"замахнешься":9090,"самонастраивающимся":9091,"AS5Для":9092,"экселях":9093,"AIRСейчас":9094,"AH7Редко":9095,"Большеголовым":9096,"сос":9097,"шумоподавляющим":9098,"ED3Пожалуй":9099,"AM7Главное":9100,"AK7Самое":9101,"область":9102,"BIF":9103,"BIFMA":9104,"PIKABU20":9105,"##мули":9106,"реальность":9107,"попада":9108,"деби":9109,"Втор":9110,"воск":9111,"старо":9112,"нахуй":9113,"дог":9114,"##мети":9115,"250":9116,"##кость":9117,"стрем":9118,"депутат":9119,"поселения":9120,"десятки":9121,"любопы":9122,"##рные":9123,"глазах":9124,"##ниться":9125,"youtube":9126,"##щина":9127,"бесе":9128,"##сел":9129,"Слушай":9130,"делом":9131,"##тивы":9132,"ово":9133,"##end":9134,"ремонт":9135,"брон":9136,"from":9137,"шаг":9138,"искрен":9139,"##бина":9140,"посвя":9141,"атмосфер":9142,"НАТО":9143,"жут":9144,"недостаточно":9145,"##вольно":9146,"рассказывать":9147,"записи":9148,"##скоре":9149,"теат":9150,"##оты":9151,"##дев":9152,"индивиду":9153,"моду":9154,"боле":9155,"изобрет":9156,"Понятно":9157,"хорош":9158,"невер":9159,"мг":9160,"##жима":9161,"##вии":9162,"##шено":9163,"церков":9164,"здоровья":9165,"игрок":9166,"дав":9167,"костю":9168,"имели":9169,"натура":9170,"сидят":9171,"##теров":9172,"северо":9173,"вез":9174,"мега":9175,"##ологии":9176,"собственной":9177,"колон":9178,"##влю":9179,"трёх":9180,"пал":9181,"##зию":9182,"##48":9183,"Бор":9184,"Пав":9185,"##кты":9186,"роз":9187,"Кит":9188,"пат":9189,"динами":9190,"вашим":9191,"одоб":9192,"знала":9193,"##вяз":9194,"##мей":9195,"##!!!!":9196,"##========":9197,"ключе":9198,"конкур":9199,"сутки":9200,"назначен":9201,"возникает":9202,"телефона":9203,"Bl":9204,"Между":9205,"##ko":9206,"##фера":9207,"продавать":9208,"используют":9209,"акку":9210,"вступ":9211,"##пати":9212,"Отлично":9213,"старые":9214,"последних":9215,"##сим":9216,"##лагаю":9217,"Кру":9218,"пиво":9219,"Кали":9220,"ссылки":9221,"заго":9222,"возрасте":9223,"##стье":9224,"Неужели":9225,"##охран":9226,"питания":9227,"##рис":9228,"мес":9229,"ГО":9230,"спорить":9231,"прогу":9232,"миллионы":9233,"мили":9234,"##рота":9235,"патриоти":9236,"поу":9237,"перей":9238,"##юр":9239,"Санкт":9240,"##арда":9241,"двигателя":9242,"демократи":9243,"Дмит":9244,"оказались":9245,"##гинал":9246,"теория":9247,"разобраться":9248,"Шта":9249,"##сья":9250,"корре":9251,"твоего":9252,"путем":9253,"девочка":9254,"1990":9255,"##ge":9256,"##йка":9257,"позволить":9258,"полов":9259,"##нному":9260,"сообра":9261,"ощущения":9262,"фил":9263,"пытались":9264,"названием":9265,"возле":9266,"москов":9267,"туа":9268,"впрочем":9269,"появилась":9270,"наста":9271,"минуты":9272,"ПАРНАС":9273,"разде":9274,"приход":9275,"185":9276,"##летов":9277,"фаль":9278,"местные":9279,"пошла":9280,"лё":9281,"##мон":9282,"образован":9283,"теми":9284,"2003":9285,"чужо":9286,"##нутся":9287,"подразуме":9288,"препода":9289,"##стры":9290,"сан":9291,"Россией":9292,"российские":9293,"интересы":9294,"неодно":9295,"##........":9296,"вино":9297,"жены":9298,"режисс":9299,"руководите":9300,"политику":9301,"средне":9302,"предпочита":9303,"Помо":9304,"хе":9305,"вина":9306,"эмоциона":9307,"Запад":9308,"ссылка":9309,"самолет":9310,"варианты":9311,"##шены":9312,"##части":9313,"российского":9314,"пространства":9315,":\"":9316,"1941":9317,"Тру":9318,"референ":9319,"##фикации":9320,"рука":9321,"яйца":9322,"познакоми":9323,"##одо":9324,"##питан":9325,"##шет":9326,"##дует":9327,"Доро":9328,"причинам":9329,"твою":9330,"леген":9331,"##еба":9332,"подня":9333,"##изво":9334,"##гор":9335,"##28":9336,"писто":9337,"площадь":9338,"Mr":9339,"прио":9340,"##вера":9341,"##рпи":9342,"##всегда":9343,"##ave":9344,".–":9345,"эффектив":9346,"сезо":9347,"прокура":9348,"##ющийся":9349,"##ковы":9350,"обрабо":9351,"##вия":9352,"68":9353,"спорти":9354,"выб":9355,"потери":9356,"##това":9357,"труб":9358,"Основ":9359,"##ствий":9360,"патрио":9361,"кван":9362,"##яет":9363,"лабора":9364,"##етов":9365,"##ran":9366,"собирается":9367,"знамени":9368,"##сии":9369,"выстре":9370,"тет":9371,"##width":9372,"блядь":9373,"шли":9374,"##тивные":9375,"СА":9376,"получают":9377,"площади":9378,"думают":9379,"(!":9380,"ничто":9381,"Ры":9382,"газа":9383,"бюджета":9384,"удовлет":9385,"применя":9386,"кусок":9387,"секс":9388,"мечта":9389,"##ждается":9390,"##льд":9391,"ход":9392,"соз":9393,"##держать":9394,"воздуха":9395,"устраивает":9396,"сбе":9397,"рем":9398,"##height":9399,"preview_height":9400,"preview_width":9401,"Яблоко":9402,"некоторое":9403,"маршру":9404,"зача":9405,"ВСЕ":9406,"##чился":9407,"##Neo":9408,"ноут":9409,"меж":9410,"эли":9411,"всякий":9412,"Вик":9413,"возбу":9414,"##ненно":9415,"определи":9416,"##стям":9417,"пытаюсь":9418,"Ше":9419,"##16":9420,"Дмитрий":9421,"##95":9422,"манипу":9423,"удовольствие":9424,"##дились":9425,"##вим":9426,"##ностей":9427,"##шир":9428,"заявления":9429,"жопу":9430,"больно":9431,"##жкой":9432,"привле":9433,"плохой":9434,"молодо":9435,"неизвест":9436,"цар":9437,"предвари":9438,"автомобиля":9439,"храм":9440,"##чится":9441,"##зан":9442,"отече":9443,"добавля":9444,"##мериз":9445,"##нешь":9446,"гиган":9447,"законода":9448,"ходят":9449,"##декс":9450,"требуется":9451,"оккупа":9452,"дизай":9453,"принят":9454,"##гистри":9455,"генерал":9456,"мужчины":9457,"пойду":9458,"Арм":9459,"стоимости":9460,"входит":9461,"необходим":9462,"шка":9463,"##щика":9464,"попытки":9465,"веща":9466,"методи":9467,"##жению":9468,"финансов":9469,"ук":9470,"##новь":9471,"1999":9472,"гр":9473,"консер":9474,"слову":9475,"привез":9476,"еврей":9477,"Буду":9478,"прове":9479,"вверх":9480,"Бан":9481,"Пит":9482,"Кур":9483,"##тли":9484,"Такое":9485,"поняла":9486,"революции":9487,"процента":9488,"церкви":9489,"Послу":9490,"##фаль":9491,"##_time":9492,"you":9493,"физики":9494,"креди":9495,"почу":9496,"поставил":9497,"start_time":9498,"##гнать":9499,"направлении":9500,"Само":9501,"мистер":9502,"продолжать":9503,"ава":9504,"продукт":9505,"журналист":9506,"прожив":9507,"Ир":9508,"семью":9509,"Обычно":9510,"постоян":9511,"плохого":9512,"##ga":9513,"материал":9514,"суток":9515,"данной":9516,"ног":9517,"знак":9518,"##евой":9519,"##ствовали":9520,"секунду":9521,"##ченко":9522,"рос":9523,"контроль":9524,"врача":9525,"##ush":9526,"формы":9527,"рукой":9528,"вернулся":9529,"потря":9530,"продать":9531,"Затем":9532,"...-":9533,"выпи":9534,"письмо":9535,"фамили":9536,"сно":9537,"университета":9538,"##денти":9539,"##мок":9540,"допустим":9541,"##nal":9542,"##леку":9543,"##теры":9544,"##ющем":9545,"ориенти":9546,"маст":9547,"потреби":9548,"запомни":9549,"импуль":9550,"родился":9551,"##кции":9552,"##ty":9553,"Киев":9554,"Вал":9555,"Ранее":9556,"##льм":9557,"##лкой":9558,"##ТА":9559,"##вность":9560,"##еро":9561,"батаре":9562,"##пами":9563,"культуры":9564,"##жена":9565,"Кал":9566,"создания":9567,"##стной":9568,"##гий":9569,"действу":9570,"подви":9571,"утро":9572,"пет":9573,"детства":9574,"срабо":9575,"##теи":9576,"записа":9577,"Гар":9578,"излу":9579,"Новости":9580,"Совета":9581,"хирур":9582,"Рез":9583,"веке":9584,"выбрать":9585,"Сем":9586,"конститу":9587,"промышлен":9588,"Рос":9589,"Пой":9590,"дипло":9591,"делается":9592,"вышла":9593,"навы":9594,"копей":9595,"допуска":9596,"половину":9597,"##нен":9598,"Лон":9599,"эфи":9600,"Знаете":9601,"СО":9602,"with":9603,"##дкой":9604,"Ива":9605,"развер":9606,"кварт":9607,"##кратно":9608,"##45":9609,"глубоко":9610,"пиро":9611,"##ron":9612,"##ph":9613,"Йор":9614,"сцен":9615,"Ельци":9616,"теп":9617,"товарищ":9618,"деятельность":9619,"Хочу":9620,"ущер":9621,"Конститу":9622,"Дер":9623,"##ear":9624,"слуша":9625,"граждане":9626,"рот":9627,"##шеб":9628,"комплекс":9629,"отвра":9630,"будущего":9631,"вновь":9632,"редак":9633,"##рхи":9634,"Голо":9635,"Продол":9636,"Ибо":9637,"духов":9638,"нормальные":9639,"малы":9640,"##хнет":9641,"понятие":9642,"состояния":9643,"арти":9644,"##рована":9645,"побы":9646,"жители":9647,"Оли":9648,"чувствую":9649,"предна":9650,"позд":9651,"Том":9652,"##полу":9653,"##дняя":9654,"появляется":9655,"##км":9656,"обор":9657,"обсуждать":9658,"реаги":9659,"Th":9660,"снимать":9661,"Зак":9662,"##ванные":9663,"генети":9664,"нефть":9665,"различных":9666,"справа":9667,"Прекра":9668,"визу":9669,"мужчин":9670,"воздух":9671,"берегу":9672,"свете":9673,"ошибка":9674,"Андрей":9675,"награ":9676,"##руя":9677,"##етом":9678,"##iy":9679,"Такой":9680,"деду":9681,"##гг":9682,"##itf":9683,"##ордина":9684,"значения":9685,"крым":9686,"рыба":9687,"авари":9688,"##чению":9689,"программу":9690,"мило":9691,"вещ":9692,"##шенко":9693,"борьбы":9694,"развед":9695,"##стил":9696,"риск":9697,"уй":9698,"состави":9699,"предложения":9700,"каждую":9701,"РИА":9702,"##****":9703,"##ссию":9704,"лока":9705,"##класс":9706,"обществе":9707,"##мене":9708,"Хи":9709,"учетом":9710,"##змы":9711,"Вселенной":9712,"реальные":9713,"говорим":9714,"1944":9715,".....":9716,"быд":9717,"инфра":9718,"штук":9719,"Ай":9720,"аудито":9721,"сигна":9722,"наличии":9723,"объеди":9724,"лень":9725,"Москву":9726,"сумму":9727,"пусто":9728,"парни":9729,"национали":9730,"##меры":9731,"постара":9732,"##лён":9733,"##вере":9734,"напад":9735,"лома":9736,"дворе":9737,"Хоть":9738,"прика":9739,"##люб":9740,"полном":9741,"сей":9742,"имуще":9743,"Эт":9744,"ученые":9745,"клуба":9746,"##ne":9747,"обоих":9748,"кусо":9749,"армия":9750,"скажите":9751,"##защи":9752,"стоял":9753,"##некдо":9754,"кандидатов":9755,"выру":9756,"губерна":9757,"##itfrid":9758,"Иванов":9759,"##22":9760,"##тились":9761,"уходит":9762,"профес":9763,"чувству":9764,"техники":9765,"хлеб":9766,"остаться":9767,"##емым":9768,"существуют":9769,"солне":9770,"##боль":9771,"39":9772,"канал":9773,"##литься":9774,"прине":9775,"видишь":9776,"фильмов":9777,"идею":9778,"поддержку":9779,"стрел":9780,"Ditfrid":9781,"##город":9782,"помимо":9783,"##риа":9784,"наук":9785,"##рованной":9786,"военные":9787,"##oun":9788,"стиль":9789,"междунаро":9790,"##щены":9791,"##рной":9792,"санкции":9793,"забира":9794,"рынка":9795,"##тни":9796,"##ссер":9797,"##купи":9798,"стыдно":9799,"##льны":9800,"сталки":9801,"вещества":9802,"задержа":9803,"Сол":9804,"##возь":9805,"последнего":9806,"ходу":9807,"общественно":9808,"зелены":9809,"коп":9810,"сезона":9811,"подход":9812,"##товой":9813,"хватило":9814,"##лянди":9815,"своя":9816,"##сев":9817,"##зму":9818,"препод":9819,"##пин":9820,"писали":9821,"##ton":9822,"груз":9823,"##пания":9824,"последу":9825,"чемпионата":9826,"отвечает":9827,"дорога":9828,"связано":9829,"диагно":9830,"жизнью":9831,"глупы":9832,"друж":9833,"умеют":9834,"вопросу":9835,"критери":9836,"##кладывать":9837,"Эн":9838,"Роди":9839,"выбро":9840,"современных":9841,"имеем":9842,"уверены":9843,"аппарат":9844,"##ктов":9845,"сним":9846,"##чках":9847,"крат":9848,"приду":9849,"судить":9850,"акту":9851,"##мби":9852,"книге":9853,"Республики":9854,"65":9855,"##кового":9856,"подсай":9857,"Обо":9858,"тратить":9859,"метод":9860,"мужа":9861,"##рились":9862,"Всего":9863,"идей":9864,"##аньше":9865,"интересный":9866,"ваку":9867,"взрыв":9868,"##нулась":9869,"чт":9870,"зарплату":9871,"прими":9872,"##ial":9873,"##роны":9874,"даёт":9875,"млад":9876,"нарушение":9877,"ада":9878,"находя":9879,"сообщил":9880,"худо":9881,"голов":9882,"нравятся":9883,"капсу":9884,"сомнения":9885,"Побе":9886,"##yp":9887,"Афри":9888,"Народ":9889,"##вёр":9890,"Верхов":9891,"de":9892,"нал":9893,"мусуль":9894,"Весь":9895,"прошел":9896,"отдать":9897,"сало":9898,"##ug":9899,"воспомина":9900,"##ходом":9901,"Земле":9902,"убийство":9903,"##тиви":9904,"субъе":9905,"##гих":9906,"Ам":9907,"черт":9908,"##78":9909,"депутатов":9910,"##стный":9911,"ЕдР":9912,"##пии":9913,"проводить":9914,"Раньше":9915,"офис":9916,"##ковая":9917,"##uch":9918,"Мои":9919,"зажи":9920,"самим":9921,"##дая":9922,"иду":9923,"Шу":9924,"##емое":9925,"монасты":9926,"температура":9927,"##igil":9928,"сигарет":9929,"##рных":9930,"начнут":9931,"##пали":9932,"боже":9933,"атмосф":9934,"единоро":9935,"учиться":9936,"Типа":9937,"Бога":9938,"следы":9939,"подво":9940,"предпринима":9941,"360":9942,"заставить":9943,"успел":9944,"выстав":9945,"отвеча":9946,"##бан":9947,"соедин":9948,"##чиком":9949,"порно":9950,"##dd":9951,"получила":9952,"картинка":9953,"##жное":9954,"большого":9955,"##ивать":9956,"Свя":9957,"миллиардов":9958,"подрост":9959,"камеры":9960,"##брасы":9961,"##хаха":9962,"Норма":9963,"база":9964,"россии":9965,"востор":9966,"##тари":9967,"##att":9968,"Go":9969,"##igilist":9970,"прямой":9971,"восполь":9972,"180":9973,"См":9974,"опу":9975,"разоча":9976,"##пель":9977,"справ":9978,"режима":9979,"технолог":9980,"максимально":9981,"##наз":9982,"общаться":9983,"запол":9984,"##дея":9985,"##ступить":9986,"##стят":9987,"очи":9988,"дыры":9989,"поток":9990,"##планет":9991,"##ённые":9992,"происходя":9993,"лицен":9994,"##щена":9995,"##кови":9996,"каждому":9997,"##ишь":9998,"лучших":9999,"интересное":10000,"тд":10001,"дебют":10002,"бат":10003,"правил":10004,"используется":10005,"ДНК":10006,"##ённый":10007,"представляет":10008,"какими":10009,"##изма":10010,"##делать":10011,"##статочно":10012,"окна":10013,"рабочих":10014,"прочим":10015,"зерка":10016,"доказыва":10017,"ch":10018,"уголо":10019,"большеви":10020,"военно":10021,"Оте":10022,"700":10023,"минуту":10024,"допол":10025,"Маска":10026,"МКС":10027,"побольше":10028,"похож":10029,"##ue":10030,"восстанов":10031,"Касья":10032,"скром":10033,"полное":10034,"энергети":10035,"немцы":10036,"48":10037,"##день":10038,"товар":10039,"эпизо":10040,"названия":10041,"поддержки":10042,"улицы":10043,"код":10044,"отдыха":10045,"##мун":10046,"ресурсы":10047,"оппон":10048,"##тивных":10049,"посмотрим":10050,"ситу":10051,"гравита":10052,"##ними":10053,"играл":10054,"##даль":10055,"##коло":10056,"планете":10057,"объект":10058,"асфаль":10059,"баксов":10060,"##ары":10061,"##ern":10062,"молодой":10063,"экипа":10064,"кори":10065,"##На":10066,"ПРО":10067,"убили":10068,"трам":10069,"подклю":10070,"почув":10071,"убрать":10072,"всём":10073,"выбирать":10074,"прежнему":10075,"йо":10076,"##чите":10077,"выпу":10078,"шпи":10079,"##ah":10080,"дале":10081,"технологий":10082,"советских":10083,"##няюсь":10084,"набира":10085,"184":10086,"обязан":10087,"признать":10088,"заблу":10089,"##ээ":10090,"дого":10091,"точка":10092,"ват":10093,"предложил":10094,"Сли":10095,"собран":10096,"##кос":10097,"ФСБ":10098,"банк":10099,"##лёт":10100,"уско":10101,"1945":10102,"##риф":10103,"обнару":10104,"Тво":10105,"чушь":10106,"##яется":10107,"речи":10108,"тренер":10109,"весело":10110,"запас":10111,"российский":10112,"##уме":10113,"человечества":10114,"Правильно":10115,"подобного":10116,"надое":10117,"трей":10118,"сделает":10119,"Доктор":10120,"каби":10121,"погу":10122,"Эр":10123,"1943":10124,"##женных":10125,"##анской":10126,"##вери":10127,"работали":10128,"!!!!":10129,"сож":10130,"внимательно":10131,"массу":10132,"приводит":10133,"купи":10134,"мари":10135,"позволя":10136,"модера":10137,"приготов":10138,"Хочешь":10139,"спуска":10140,"##рировать":10141,"подходя":10142,"нашла":10143,"КО":10144,"##ковым":10145,"##int":10146,"спасти":10147,"##честву":10148,"крупных":10149,"Гре":10150,"Ши":10151,"лоб":10152,"пары":10153,"режиме":10154,"законов":10155,"предъя":10156,"кося":10157,"Помни":10158,"компью":10159,"##зера":10160,"##прово":10161,"продав":10162,"логика":10163,"##мали":10164,"##вому":10165,"ходил":10166,"##щал":10167,"ед":10168,"активи":10169,"##шинство":10170,"вопросом":10171,"##зал":10172,"ушел":10173,"собаки":10174,"современной":10175,"##женные":10176,"инженер":10177,"раздел":10178,"вен":10179,"ресурсов":10180,"##гнали":10181,"зарегистри":10182,"провока":10183,"принял":10184,"уны":10185,"показывают":10186,"##брали":10187,"достижения":10188,"улыб":10189,"пришло":10190,"плем":10191,"отчет":10192,"попытка":10193,"Скоро":10194,"##боры":10195,"атак":10196,"ведет":10197,"убы":10198,"05":10199,"мотоци":10200,"##eb":10201,"##берг":10202,"корпу":10203,"придумали":10204,"депутаты":10205,"сыр":10206,"лице":10207,"инструк":10208,"основа":10209,"показали":10210,"Ch":10211,"самолё":10212,"полная":10213,"##диви":10214,"втором":10215,"праймериз":10216,"падает":10217,"бух":10218,"Будет":10219,"руководство":10220,"ответственности":10221,"пошло":10222,"продолжи":10223,"зуб":10224,"##пел":10225,"##ment":10226,"##рё":10227,"Евг":10228,"Тес":10229,"##чники":10230,"появится":10231,"##ивается":10232,"въ":10233,"вселенной":10234,"процесса":10235,"?»":10236,"ть":10237,"фантасти":10238,"следствие":10239,"академи":10240,"предсе":10241,"собака":10242,"начиная":10243,"ору":10244,"чес":10245,"ТА":10246,"делаете":10247,"еды":10248,"##ляться":10249,"матче":10250,"XX":10251,"молоде":10252,"смотрит":10253,"Пут":10254,"##ражи":10255,"клиента":10256,"пенсии":10257,"депре":10258,"свадь":10259,"огра":10260,"оказалась":10261,"ит":10262,"отношений":10263,"##73":10264,"голосов":10265,"хотим":10266,"##tp":10267,"##вшую":10268,"Мат":10269,"ответы":10270,"##дли":10271,"иденти":10272,"напоминает":10273,"бага":10274,"Рес":10275,"великоле":10276,"ООН":10277,"комментариях":10278,"советской":10279,"села":10280,"имеется":10281,"впло":10282,"вернул":10283,"ПДД":10284,"##нты":10285,"рекомендую":10286,"##ениями":10287,"давление":10288,"бизнеса":10289,"en":10290,"##рье":10291,"##созна":10292,"избран":10293,"95":10294,"занимаются":10295,"ВВП":10296,"##муни":10297,"космосе":10298,"организация":10299,"получения":10300,"автомобили":10301,"картинку":10302,"окончательно":10303,"Nigilist":10304,"183":10305,"Япон":10306,"берут":10307,"##шат":10308,"чемпионате":10309,"##ДЕ":10310,"NigilistNeo":10311,"слышали":10312,"псих":10313,"общей":10314,"Pro":10315,"текста":10316,"Ее":10317,"спер":10318,"Подроб":10319,"43":10320,"приехал":10321,"тит":10322,"##рым":10323,"##язы":10324,"##стественно":10325,"сериал":10326,"Спе":10327,"анекдо":10328,"##женный":10329,"Гол":10330,"показал":10331,"закону":10332,"инвести":10333,"вось":10334,"##вян":10335,"открыть":10336,"предостав":10337,"##ама":10338,"комнате":10339,"##енции":10340,"##лло":10341,"Жаль":10342,"##che":10343,"##ГИ":10344,"##тальян":10345,"##обла":10346,"Мэ":10347,"##дала":10348,"сеть":10349,"масла":10350,"картину":10351,"приобрет":10352,"переход":10353,"углу":10354,"библиоте":10355,"##слаб":10356,"Мало":10357,"губернии":10358,"практике":10359,"Эд":10360,"##год":10361,"взор":10362,"##строи":10363,"фигня":10364,"##турой":10365,"воде":10366,"1086":10367,"этап":10368,"##лару":10369,"##гите":10370,"мгнов":10371,"##етах":10372,"красный":10373,"пишите":10374,"Какое":10375,"##ступил":10376,"прочитал":10377,"мусор":10378,"предназна":10379,"##),":10380,"должность":10381,"##uk":10382,"##щины":10383,"экст":10384,"поверить":10385,"сплош":10386,"##63":10387,"жени":10388,"ребёнка":10389,"##ходу":10390,"##гады":10391,"##вла":10392,"##нутри":10393,"фраза":10394,"отношению":10395,"Иго":10396,"##веро":10397,"двиг":10398,"планы":10399,"оставля":10400,"##шений":10401,"Партия":10402,"##AS":10403,"нарушения":10404,"короче":10405,"##Grey":10406,"едет":10407,"Среди":10408,"##чало":10409,"Михаил":10410,"превос":10411,"480":10412,"термо":10413,"сотрудников":10414,"позицию":10415,"новым":10416,"отметил":10417,"##кнул":10418,"самих":10419,"стоило":10420,"прост":10421,"насла":10422,"##вят":10423,"символ":10424,"d3":10425,"##ндрои":10426,"44":10427,"##влен":10428,"будучи":10429,"##вее":10430,"впереди":10431,"крупней":10432,"мозги":10433,"удовлетво":10434,"Время":10435,"самую":10436,"поставили":10437,"предпоч":10438,"городу":10439,"селе":10440,"интересует":10441,"##тельном":10442,"дикта":10443,"атом":10444,"мальчик":10445,"обоз":10446,"нашёл":10447,"ссылкой":10448,"городов":10449,"небольшо":10450,"##числи":10451,"несчаст":10452,"01":10453,"огонь":10454,"##фан":10455,"Питер":10456,"глава":10457,"отме":10458,"терми":10459,"Вос":10460,"##ТП":10461,"##88":10462,"##тивной":10463,"Мол":10464,"##ence":10465,"аргумент":10466,"##вывать":10467,"команда":10468,"началась":10469,"постов":10470,"позиция":10471,"тов":10472,"поколения":10473,"волшеб":10474,"безум":10475,"##дленно":10476,"американских":10477,"##стал":10478,"заби":10479,"##эта":10480,"Земля":10481,"##гин":10482,"гено":10483,"Вой":10484,"##пут":10485,"насле":10486,"эксперимент":10487,"нак":10488,"Доба":10489,"Можете":10490,"##lay":10491,"прия":10492,"периодически":10493,"Роскос":10494,"##новой":10495,"##образова":10496,"кин":10497,"террор":10498,"Ман":10499,"телек":10500,"##ходила":10501,"аккумуля":10502,"##ъем":10503,"случаи":10504,"балан":10505,"волны":10506,"дольше":10507,"Разу":10508,"##riter":10509,"ходит":10510,"##ish":10511,"тесто":10512,"пане":10513,"живот":10514,"окончил":10515,"##стров":10516,"ул":10517,"юриди":10518,"MrGrey":10519,"успех":10520,"сомневаюсь":10521,"Сталина":10522,"##тельными":10523,"участников":10524,"##ows":10525,"говна":10526,"Ист":10527,"решает":10528,"##пс":10529,"медве":10530,"Дела":10531,"способен":10532,"второе":10533,"жену":10534,"##ann":10535,"##ставлять":10536,"##бое":10537,"чиновников":10538,"старых":10539,"среднего":10540,"##вершенно":10541,"завед":10542,"##лор":10543,"##чков":10544,"термина":10545,"факульт":10546,"главной":10547,"изготов":10548,"продуктов":10549,"рестора":10550,"кора":10551,"##тном":10552,"сидел":10553,"асс":10554,"Прости":10555,"##erg":10556,"присоедин":10557,"хорошей":10558,"списка":10559,"лаборато":10560,"заметить":10561,"##куро":10562,"##цес":10563,"##ждают":10564,"##севдо":10565,"##зываться":10566,"городах":10567,"Америке":10568,"##слав":10569,"совпа":10570,"поднять":10571,"нож":10572,"SpaceX":10573,"материалы":10574,"поне":10575,"перено":10576,"читаю":10577,"##ровку":10578,"боли":10579,"середине":10580,"навсегда":10581,"##рованная":10582,"Увер":10583,"сопрово":10584,"корабля":10585,"зару":10586,"Уж":10587,"##торе":10588,"блока":10589,"ТС":10590,"повтор":10591,"иной":10592,"Гражда":10593,"##хали":10594,"началось":10595,"слабы":10596,"жду":10597,"природе":10598,"ложь":10599,"##тании":10600,"Ура":10601,"серьёзно":10602,"##ёд":10603,"##исты":10604,"##выбор":10605,"спорта":10606,"звезды":10607,"оптими":10608,"dr":10609,"Финлянди":10610,"отклю":10611,"##ича":10612,"wer":10613,"украинцев":10614,"хох":10615,"Неда":10616,"платфор":10617,"реальной":10618,"имена":10619,"подраз":10620,"la":10621,"Нельзя":10622,"Трамп":10623,"расчет":10624,"Хар":10625,"цве":10626,"Кир":10627,"осторо":10628,"##уго":10629,"der":10630,"Тор":10631,"di":10632,"que":10633,"разреш":10634,":(":10635,"##БО":10636,"el":10637,"se":10638,"del":10639,"die":10640,"1992":10641,"und":10642,"et":10643,"na":10644,"Writer":10645,"was":10646,"##лий":10647,"паспорт":10648,"повес":10649,"##нуло":10650,"des":10651,"den":10652,"друзьями":10653,"готова":10654,"da":10655,"je":10656,"van":10657,"использование":10658,"улицу":10659,"sa":10660,"do":10661,"вари":10662,"способом":10663,"##кладывается":10664,"реакция":10665,"il":10666,"by":10667,"og":10668,"охран":10669,"думали":10670,"La":10671,"зная":10672,"##uss":10673,"##чны":10674,"er":10675,"инфраструк":10676,"Были":10677,"von":10678,"1998":10679,"du":10680,"##хождение":10681,"av":10682,"выле":10683,"med":10684,"con":10685,"определить":10686,"##цер":10687,"est":10688,"зел":10689,"per":10690,"Бал":10691,"итальян":10692,"som":10693,"банки":10694,"por":10695,"съем":10696,"задач":10697,"Посмотрите":10698,"1991":10699,"присоеди":10700,"личное":10701,"De":10702,"лжи":10703,"no":10704,"##аном":10705,"премьер":10706,"заменить":10707,"es":10708,"министр":10709,"su":10710,"##ens":10711,"D0":10712,"штраф":10713,"##чко":10714,"Роб":10715,"km":10716,"вторую":10717,"документов":10718,"комментариев":10719,"ож":10720,"om":10721,"Красно":10722,"Зе":10723,"лы":10724,"##ta":10725,"соотно":10726,"угол":10727,"##te":10728,"зале":10729,"крепо":10730,"##na":10731,"para":10732,"mit":10733,"Великой":10734,"##зина":10735,"El":10736,"сезоне":10737,"his":10738,"181":10739,"ha":10740,"##da":10741,"обезья":10742,"врачи":10743,"прочитать":10744,"Пом":10745,"прости":10746,"Den":10747,"Die":10748,"##довал":10749,"дре":10750,"##мигра":10751,"1980":10752,"Сы":10753,"das":10754,"En":10755,"телевизо":10756,"контракт":10757,"конта":10758,"орден":10759,"par":10760,"##ьев":10761,"##куп":10762,"пау":10763,"гвар":10764,"##de":10765,"приказ":10766,"Джу":10767,"наво":10768,"au":10769,"##are":10770,"обычные":10771,"насчёт":10772,"Иди":10773,"che":10774,"видят":10775,"др":10776,"##ременно":10777,"em":10778,"Речь":10779,"dem":10780,"##ционная":10781,"##ИЯ":10782,"убо":10783,"эм":10784,"контексте":10785,"политической":10786,"безусловно":10787,"Скажите":10788,"оружием":10789,"посети":10790,"##ционно":10791,"Отечественной":10792,"Le":10793,"Il":10794,"философи":10795,"зарплата":10796,"сознание":10797,"##СО":10798,"New":10799,"свободу":10800,"Бол":10801,"ein":10802,"документ":10803,"совета":10804,"um":10805,"##важно":10806,"налогов":10807,"##тека":10808,"##пси":10809,"ist":10810,"var":10811,"раство":10812,"are":10813,"##брал":10814,"op":10815,"заметно":10816,"остановить":10817,"##лян":10818,"начинать":10819,"##дём":10820,"were":10821,"оказаться":10822,"od":10823,"son":10824,"##логия":10825,"##лд":10826,"World":10827,"темп":10828,"##do":10829,"##ктором":10830,"which":10831,"##ja":10832,"веж":10833,"прогно":10834,"ve":10835,"прину":10836,"##ti":10837,"sur":10838,"гомо":10839,"Un":10840,"непосредственно":10841,"маленькая":10842,"еб":10843,"привод":10844,"вообра":10845,"последствия":10846,"отказаться":10847,"проститу":10848,"Life":10849,"war":10850,"za":10851,"##to":10852,"Уда":10853,"##ni":10854,"##no":10855,"участвовал":10856,"##руете":10857,"182":10858,"##zz":10859,"Cl":10860,"det":10861,"Очеви":10862,"буржу":10863,"##енными":10864,"трет":10865,"молодец":10866,"нюан":10867,"Родился":10868,"He":10869,"Казах":10870,"Мама":10871,"az":10872,"te":10873,"##va":10874,"##яли":10875,"зачастую":10876,"членом":10877,"mm":10878,"].":10879,"##nt":10880,"##ma":10881,"##ловать":10882,"##мно":10883,"Зан":10884,"консо":10885,"had":10886,"сб":10887,"##ng":10888,"It":10889,"уль":10890,"##вите":10891,"so":10892,"##je":10893,"отв":10894,"##ёрт":10895,"приоб":10896,"Выс":10897,"XIX":10898,"выгодно":10899,"1997":10900,"1996":10901,"##li":10902,"двум":10903,"вя":10904,"has":10905,"##шт":10906,"четырех":10907,"лопа":10908,"хороших":10909,"удивительно":10910,"ur":10911,"##льна":10912,"##ёнок":10913,"деревне":10914,"Тех":10915,"University":10916,"##тками":10917,"##нень":10918,"попала":10919,"Ваше":10920,"наступ":10921,"шел":10922,"##алом":10923,"Газ":10924,"прошли":10925,"ni":10926,"высот":10927,"номера":10928,"##кономи":10929,"обороны":10930,"##динами":10931,"Тай":10932,"John":10933,"first":10934,"Бен":10935,"##хоз":10936,"##ca":10937,"Странно":10938,"os":10939,"met":10940,"представляю":10941,"трудом":10942,"организова":10943,"##емость":10944,"координа":10945,"Дени":10946,"all":10947,"1995":10948,"рада":10949,"Мистер":10950,"##лии":10951,"##стьян":10952,"призыва":10953,"окажется":10954,"##for":10955,"1994":10956,"восприя":10957,"non":10958,"##шеств":10959,"##вами":10960,"##si":10961,"доказательств":10962,"##везда":10963,"af":10964,"мэ":10965,"воздуш":10966,"their":10967,"ar":10968,"встречи":10969,"film":10970,"устанавли":10971,"понравился":10972,"Стар":10973,"Американ":10974,"1993":10975,"one":10976,"имея":10977,"##sa":10978,"назвал":10979,"несу":10980,"San":10981,"##ака":10982,"##щением":10983,"not":10984,"but":10985,"its":10986,"прощения":10987,"##меть":10988,"Игра":10989,"ir":10990,"who":10991,"логично":10992,"днем":10993,"York":10994,"##зак":10995,"##ческому":10996,"her":10997,"(\"":10998,"##ссно":10999,"ang":11000,"##инга":11001,"сала":11002,"over":11003,"##вающие":11004,"ser":11005,"трево":11006,"##ёк":11007,"установи":11008,"женой":11009,"1942":11010,"органов":11011,"##mi":11012,"захват":11013,"скажи":11014,"Белорус":11015,"сочета":11016,"поведения":11017,"##ki":11018,"офиц":11019,"жидко":11020,"Знаю":11021,"Попробу":11022,"##ванных":11023,"вечно":11024,"мик":11025,"po":11026,"Стоит":11027,"History":11028,"пли":11029,"полю":11030,"справля":11031,"Марс":11032,"бактери":11033,"создан":11034,"UK":11035,"1989":11036,"членов":11037,"предположить":11038,"продолжает":11039,"автомобилей":11040,"have":11041,"##ваку":11042,"this":11043,"Гри":11044,"передач":11045,"##маты":11046,"Великобритании":11047,"American":11048,"##ba":11049,"##стки":11050,"ed":11051,"стес":11052,"##бук":11053,"лучшее":11054,"экза":11055,"шар":11056,"нагре":11057,"##67":11058,"Хм":11059,"1988":11060,"ya":11061,"##ke":11062,"two":11063,"чрез":11064,"наслед":11065,"ne":11066,"##аре":11067,"##ево":11068,"Ang":11069,"##ейся":11070,"скри":11071,"##жко":11072,"пассаж":11073,"##графии":11074,"plus":11075,"душу":11076,"деревни":11077,"наблюдать":11078,"введ":11079,"Press":11080,"примеры":11081,"кримина":11082,"under":11083,"Андре":11084,"подар":11085,"целиком":11086,"протяжении":11087,"On":11088,"десятилети":11089,"1986":11090,"уголов":11091,"Бело":11092,"1987":11093,"магни":11094,"1985":11095,"##део":11096,"XVI":11097,"передает":11098,"##пик":11099,"men":11100,"Теле":11101,"been":11102,"черной":11103,"достоин":11104,"профессор":11105,"##ида":11106,"Вместо":11107,"кит":11108,"1984":11109,"##ci":11110,"##мато":11111,"отстав":11112,"41":11113,"ограничи":11114,"дивизии":11115,"тест":11116,"энергия":11117,"многим":11118,"1970":11119,"Путину":11120,"United":11121,"Виктор":11122,"1960":11123,"##ve":11124,"##оса":11125,"учили":11126,"штат":11127,"ем":11128,"соответствии":11129,"солнце":11130,"##0000":11131,"епископ":11132,"Шат":11133,"горы":11134,"худ":11135,"фрак":11136,"##щихся":11137,"работо":11138,"##me":11139,"Дай":11140,"##пети":11141,"Los":11142,"Michael":11143,"##oy":11144,"##den":11145,"становятся":11146,"time":11147,"трой":11148,"##za":11149,"##зав":11150,"Либо":11151,"NASA":11152,"##вающий":11153,"1982":11154,"1983":11155,"перечис":11156,"Али":11157,"##няются":11158,"домов":11159,"министра":11160,"королев":11161,"ВА":11162,"##меняет":11163,"III":11164,"лёг":11165,"1981":11166,"National":11167,"болезни":11168,"No":11169,"##брь":11170,"осво":11171,"поте":11172,"создавать":11173,"after":11174,"погру":11175,"##adim":11176,"1975":11177,"Det":11178,"##писал":11179,"part":11180,"поддерживать":11181,"лозу":11182,"наступа":11183,"Das":11184,"Рим":11185,"##рих":11186,"1979":11187,"стрелков":11188,"1972":11189,"come":11190,"##ya":11191,"red":11192,"##ten":11193,"##рики":11194,"представитель":11195,"other":11196,"Na":11197,"Пара":11198,"коммунисты":11199,"France":11200,"they":11201,"##кат":11202,"компаний":11203,"кош":11204,"1978":11205,"William":11206,"способны":11207,"апп":11208,"tot":11209,"1968":11210,"##ниях":11211,"переговор":11212,"уму":11213,"Интерфакс":11214,"сми":11215,"агентство":11216,"1976":11217,"##kan":11218,"##ek":11219,"into":11220,"##ровался":11221,"осталась":11222,"выдел":11223,"государственного":11224,"Pr":11225,"грузови":11226,"количестве":11227,"##ung":11228,"року":11229,"дл":11230,"06":11231,"##дора":11232,"##ів":11233,"1977":11234,"1974":11235,"1973":11236,"May":11237,"клад":11238,"альбома":11239,"полиция":11240,"программ":11241,"меняет":11242,"порой":11243,"1971":11244,"org":11245,"Mer":11246,"August":11247,"Вчера":11248,"##ium":11249,"УК":11250,"##oh":11251,"восхи":11252,"up":11253,"крестьян":11254,"почи":11255,"отличии":11256,"руководством":11257,"сможем":11258,"This":11259,"##рыз":11260,"Ром":11261,"Ост":11262,"new":11263,"##пт":11264,"карта":11265,"русской":11266,"придет":11267,"##ny":11268,"##пуга":11269,"##ho":11270,"ука":11271,"##af":11272,"##ju":11273,"##рета":11274,"##вейца":11275,"1969":11276,"клиент":11277,"ужасно":11278,"продаж":11279,"замен":11280,"свят":11281,"##др":11282,"International":11283,"Paul":11284,"City":11285,"##lar":11286,"##ji":11287,"##ивают":11288,"проверки":11289,"данного":11290,"##дик":11291,"сообщения":11292,"##едине":11293,"яв":11294,"##29":11295,"последней":11296,"территорию":11297,"##гности":11298,"##вился":11299,"att":11300,"##вёл":11301,"супру":11302,"##ленного":11303,"Ян":11304,"##вающих":11305,"ce":11306,"sin":11307,"Im":11308,"##go":11309,"more":11310,"срочно":11311,"1967":11312,"##sp":11313,"отры":11314,"вертика":11315,"David":11316,"изна":11317,"##ts":11318,"##рай":11319,"##юк":11320,"экономика":11321,"масс":11322,"1950":11323,"##co":11324,"TV":11325,"04":11326,"##ler":11327,"##стых":11328,"man":11329,"приклю":11330,"аресто":11331,"Robert":11332,"Сме":11333,"уез":11334,"Кос":11335,"ma":11336,"плевать":11337,"##чила":11338,"##eman":11339,"1962":11340,"London":11341,"виз":11342,"единственная":11343,"хре":11344,"she":11345,"туалет":11346,"Кл":11347,"хорошим":11348,"придумать":11349,"Джа":11350,"1965":11351,"ad":11352,"when":11353,"фунда":11354,"диета":11355,"провинции":11356,".:":11357,"церковь":11358,"артилл":11359,"##рила":11360,"американцев":11361,"работой":11362,"картинке":11363,"поправ":11364,"##ku":11365,"cu":11366,"Работа":11367,"1964":11368,"1966":11369,"Ат":11370,"States":11371,"Китае":11372,"##довой":11373,"Груз":11374,"кирпи":11375,"религии":11376,"NGC":11377,"1930":11378,"Кли":11379,"Кажется":11380,"##ристиан":11381,"##ze":11382,"##ХО":11383,"титул":11384,"##ёра":11385,"высокой":11386,"1961":11387,"Кей":11388,"##рони":11389,"07":11390,"болезнь":11391,"Кэ":11392,"##ink":11393,"As":11394,"##сульта":11395,"сентябре":11396,"влияние":11397,"имеете":11398,"прит":11399,"1940":11400,"интересные":11401,"армию":11402,"##ns":11403,"специалист":11404,"only":11405,"Извест":11406,"1939":11407,"любых":11408,"sly":11409,"##ентом":11410,"статус":11411,"James":11412,"комит":11413,"##пке":11414,"уверена":11415,"1963":11416,"##сать":11417,"прокля":11418,"03":11419,"страной":11420,"пытаться":11421,"базе":11422,"me":11423,"##шивать":11424,"загово":11425,"правилам":11426,"Er":11427,"марте":11428,"продажи":11429,"Кат":11430,"отсутствия":11431,"амери":11432,"##чна":11433,"каждым":11434,"##шок":11435,"year":11436,"пространстве":11437,"неизбе":11438,"##ban":11439,"##уя":11440,"##син":11441,"песни":11442,"pa":11443,"##фин":11444,"##2m":11445,"Спо":11446,"опублико":11447,"Наз":11448,"Естественно":11449,"##кана":11450,"обстоятельства":11451,"свед":11452,"##ЕМ":11453,"Велико":11454,"##rs":11455,"can":11456,"ман":11457,"силой":11458,"1958":11459,"Джек":11460,"существование":11461,"out":11462,"любому":11463,"дат":11464,"мит":11465,"##мора":11466,"George":11467,"бассей":11468,"him":11469,"банков":11470,"История":11471,"##44":11472,"хим":11473,"компьют":11474,"огромный":11475,"##ond":11476,"##дист":11477,"выки":11478,"##зади":11479,"ске":11480,"##ren":11481,"группе":11482,"имхо":11483,"##sta":11484,"стор":11485,"Причём":11486,"1956":11487,"##rt":11488,"принципиально":11489,"about":11490,"Peter":11491,"1959":11492,"##яла":11493,"декабре":11494,"02":11495,"ролик":11496,"##имость":11497,"хран":11498,"##рёх":11499,"##ванный":11500,"вышли":11501,"мае":11502,"##tu":11503,"most":11504,"окно":11505,"входа":11506,"Единую":11507,"Министер":11508,"протест":11509,"скре":11510,"ДО":11511,"ведут":11512,"Дра":11513,"##мс":11514,"маги":11515,"1948":11516,"Ке":11517,"перен":11518,"ВК":11519,"издели":11520,"полка":11521,"##града":11522,"советский":11523,"Earth":11524,"русским":11525,"учре":11526,"1920":11527,"оса":11528,"пев":11529,"Ира":11530,"made":11531,"занял":11532,"##ствительно":11533,"МИ":11534,"услуги":11535,"обли":11536,"украи":11537,"1957":11538,"велик":11539,"компанию":11540,"летать":11541,"доход":11542,"##дравляю":11543,"1954":11544,"##mo":11545,"миллиард":11546,"09":11547,"##екто":11548,"##wa":11549,"скло":11550,"сообщение":11551,"передать":11552,"стих":11553,"версию":11554,"##ica":11555,"##be":11556,"Se":11557,"январе":11558,"музыку":11559,"##зительно":11560,"пива":11561,"##ола":11562,"контроля":11563,"08":11564,"существования":11565,"##ённого":11566,"помог":11567,"South":11568,"ta":11569,"Почти":11570,"ОО":11571,"##ходим":11572,"USA":11573,"##дется":11574,"1946":11575,"топо":11576,"You":11577,"уте":11578,"##ina":11579,"##бовали":11580,"перегово":11581,"уве":11582,"1955":11583,"многоразо":11584,"Италии":11585,"League":11586,"видов":11587,"школь":11588,"окончания":11589,"театр":11590,"гени":11591,"##land":11592,"##блоки":11593,"1938":11594,"ЕдРо":11595,"than":11596,"nu":11597,"ПВО":11598,"1953":11599,"##помню":11600,"##кторов":11601,"читайте":11602,"РП":11603,"гипер":11604,"картина":11605,"IV":11606,"1949":11607,"программе":11608,"1918":11609,"разными":11610,"гара":11611,"1952":11612,"All":11613,"выделя":11614,"главным":11615,"State":11616,"##lan":11617,"неизвестно":11618,"смело":11619,"##ні":11620,"ваго":11621,"понят":11622,"club":11623,"СМ":11624,"1947":11625,"обс":11626,"мошен":11627,"Фу":11628,"Вами":11629,"##работа":11630,"85":11631,"June":11632,"team":11633,"Az":11634,"1936":11635,"съез":11636,"##пия":11637,"пони":11638,"отдела":11639,"##ead":11640,"##ner":11641,"Город":11642,"догада":11643,"стекло":11644,"уезда":11645,"##яр":11646,"ca":11647,"знаний":11648,"блять":11649,"ноль":11650,"акка":11651,"sly2m":11652,"карте":11653,"гон":11654,"практика":11655,"March":11656,"ap":11657,"тё":11658,"зама":11659,"нав":11660,"She":11661,"Счита":11662,"Иван":11663,"some":11664,"##ada":11665,"цивилизова":11666,"there":11667,"турни":11668,"врачей":11669,"##время":11670,"поиск":11671,"British":11672,"pe":11673,"расскажите":11674,"ke":11675,"West":11676,"ГД":11677,"здания":11678,"##ноз":11679,"поменять":11680,"Поро":11681,"co":11682,"личность":11683,"поворот":11684,"1937":11685,"наград":11686,"Помню":11687,"политике":11688,"октябре":11689,"any":11690,"миллиарда":11691,"дадут":11692,"##вшее":11693,"общий":11694,"##центра":11695,"Новый":11696,"вскоре":11697,"называем":11698,"Кара":11699,"ограничения":11700,"##que":11701,"Сама":11702,"впоследствии":11703,"place":11704,"##хан":11705,"Сим":11706,"вдох":11707,"империи":11708,"лекарства":11709,"Ак":11710,"сознания":11711,"1951":11712,"органы":11713,"pod":11714,"##ble":11715,"Немного":11716,"сообщается":11717,"услышать":11718,"cm":11719,"Позво":11720,"интересная":11721,"страх":11722,"философ":11723,"October":11724,"английский":11725,"Послед":11726,"находился":11727,"дерьмо":11728,"службу":11729,"##сист":11730,"республики":11731,"General":11732,"выса":11733,"through":11734,"мост":11735,"собирать":11736,"North":11737,"##пры":11738,"полагаю":11739,"прес":11740,"территори":11741,"комитета":11742,"##ll":11743,"края":11744,"##ea":11745,"##res":11746,"Martin":11747,"распи":11748,"Вар":11749,");":11750,"Park":11751,"представители":11752,"понимания":11753,"словно":11754,"Рад":11755,"##vo":11756,"забыть":11757,"##son":11758,"1933":11759,"Love":11760,"Нор":11761,"разницу":11762,"Кни":11763,"объектив":11764,"##––––––––":11765,"юту":11766,"Po":11767,"собственного":11768,"показалось":11769,"читали":11770,"стру":11771,"Получается":11772,"образу":11773,"реакции":11774,"##ck":11775,"tra":11776,"привед":11777,"##тания":11778,"179":11779,"##les":11780,"##ning":11781,"диплом":11782,"1935":11783,"##ado":11784,"плате":11785,"Геор":11786,"Жирик":11787,"Or":11788,"War":11789,"отличаются":11790,"напрямую":11791,"##gen":11792,"Кие":11793,"##zi":11794,"1934":11795,"##лью":11796,"Александра":11797,"1919":11798,"буль":11799,"человечество":11800,"Em":11801,"всер":11802,"ДТП":11803,"трол":11804,"Германия":11805,"##вано":11806,"64":11807,"устройства":11808,"##nie":11809,"##ista":11810,"слева":11811,"направления":11812,"After":11813,"чудес":11814,"траекто":11815,"шести":11816,"##off":11817,"1914":11818,"Такая":11819,"команду":11820,"pp":11821,"##vi":11822,"базо":11823,"##стного":11824,"##менили":11825,"Рост":11826,"##ённой":11827,"Club":11828,"Music":11829,"плохие":11830,"Grand":11831,"августе":11832,"##горит":11833,"Fal":11834,"работала":11835,"name":11836,"евреев":11837,"красно":11838,"двадцать":11839,"видом":11840,"нагля":11841,"орг":11842,"Николай":11843,"предлагает":11844,"1932":11845,"##ero":11846,"хру":11847,"1929":11848,"will":11849,"методы":11850,"##жили":11851,"One":11852,"##скать":11853,"bi":11854,"Man":11855,"1928":11856,"them":11857,"##дие":11858,"##яг":11859,"##berg":11860,"Поскольку":11861,"як":11862,"этапе":11863,"леса":11864,"ЖЖ":11865,"##колько":11866,"##pe":11867,"world":11868,"ab":11869,"##мыми":11870,"##pa":11871,"реда":11872,"##ллер":11873,"##ственными":11874,"создание":11875,"вплоть":11876,"драм":11877,"series":11878,"##жусь":11879,"1917":11880,"забрать":11881,"жизн":11882,"отправить":11883,"##евского":11884,"аген":11885,"собор":11886,"##тером":11887,"single":11888,"Порт":11889,"Питере":11890,"расходы":11891,"четко":11892,"аналог":11893,"хар":11894,"1931":11895,"придумал":11896,"Ссы":11897,"десятков":11898,"may":11899,"##sk":11900,"коллекти":11901,"пед":11902,"копейки":11903,"##((":11904,"school":11905,"ведом":11906,"1080":11907,"Источник":11908,"Art":11909,"##енному":11910,"For":11911,"веро":11912,"##ski":11913,"потерял":11914,"звук":11915,"Свет":11916,"базы":11917,"via":11918,"nom":11919,"диамет":11920,"Подож":11921,"##шена":11922,"открыто":11923,"полков":11924,"47":11925,"жертв":11926,"Пы":11927,"1924":11928,"чемпи":11929,"##men":11930,"выя":11931,"каб":11932,"##ёж":11933,"механизм":11934,"прийти":11935,"work":11936,"Инд":11937,"people":11938,"us":11939,"предлагаю":11940,"смотрят":11941,"отор":11942,"преимуществ":11943,"gran":11944,"Жен":11945,"материала":11946,"##без":11947,"представителей":11948,"##тике":11949,"##ЕС":11950,"слышу":11951,"America":11952,"ресурс":11953,"1927":11954,"Дом":11955,"обычных":11956,"##стка":11957,"##ger":11958,"категори":11959,"##рест":11960,"нуле":11961,"скучно":11962,"выступал":11963,"реформ":11964,"Олимпийских":11965,"картины":11966,"космической":11967,"сайта":11968,"Union":11969,"стой":11970,"##зре":11971,"##du":11972,"1922":11973,"лампо":11974,"1925":11975,"театра":11976,"##ura":11977,"1921":11978,"взро":11979,"Пал":11980,"To":11981,"##рять":11982,"зубы":11983,"1926":11984,"апреле":11985,"Van":11986,"Госду":11987,"батарей":11988,"##ii":11989,"настоящему":11990,"станут":11991,"специалистов":11992,"псевдо":11993,"радиа":11994,"должности":11995,"##аса":11996,"##ваи":11997,"history":11998,"парламент":11999,"Перед":12000,"приняли":12001,"сука":12002,"отряд":12003,"ден":12004,"##ону":12005,"##сило":12006,"камеру":12007,"##nes":12008,"лест":12009,"атеи":12010,"bu":12011,"Am":12012,"РС":12013,"ноябре":12014,"такому":12015,"Код":12016,"Справедли":12017,"формули":12018,"1912":12019,"##ome":12020,"лучшие":12021,"Эк":12022,"пад":12023,"System":12024,"природы":12025,"##ньте":12026,"King":12027,"##21":12028,"Несмотря":12029,"двигателей":12030,"аварий":12031,"hi":12032,"1923":12033,"://":12034,"возьми":12035,"51":12036,"52":12037,"##вшими":12038,"##tt":12039,"46":12040,"##_p":12041,"##by":12042,"Old":12043,"вел":12044,"##благо":12045,"Московской":12046,"подраздел":12047,"##гип":12048,"рыб":12049,"река":12050,"Давно":12051,"##ien":12052,"Суд":12053,"##ai":12054,"##жными":12055,"единой":12056,"House":12057,"принцип":12058,"июле":12059,"Республи":12060,"смогла":12061,"предвыбор":12062,"бывший":12063,"июне":12064,"##ссов":12065,"Ленинград":12066,"Кре":12067,"Прият":12068,"##мпиа":12069,"нену":12070,"##вшегося":12071,"сон":12072,"симпати":12073,"учени":12074,"ждут":12075,"офице":12076,"многочис":12077,"шест":12078,"противника":12079,"1900":12080,"##ложений":12081,"band":12082,"##чев":12083,"end":12084,"Великобри":12085,"границу":12086,"##атра":12087,"ФБ":12088,"отметить":12089,"энергию":12090,"демонстра":12091,"49":12092,"феврале":12093,"демократ":12094,"Sie":12095,"city":12096,"1910":12097,"Washington":12098,"##ach":12099,"художе":12100,"Me":12101,"My":12102,"радика":12103,"еру":12104,"China":12105,"##ёта":12106,"Tour":12107,"Royal":12108,"рассказывает":12109,"составляло":12110,"достовер":12111,"##умы":12112,"сделаю":12113,"группу":12114,"некий":12115,"четырёх":12116,"##ert":12117,"1913":12118,"бумаги":12119,"##len":12120,"##Да":12121,"based":12122,"##тику":12123,"Dr":12124,"приговор":12125,"li":12126,"каждая":12127,"English":12128,"обращение":12129,"##дника":12130,"осмот":12131,"##тору":12132,"подчер":12133,"##ita":12134,"##ЭС":12135,"##ies":12136,"магаз":12137,"))))":12138,"политических":12139,"56":12140,"института":12141,"упро":12142,"##ana":12143,"нано":12144,"##равни":12145,"моменты":12146,"стер":12147,"искренне":12148,"##гнит":12149,"провёл":12150,"##хоро":12151,"неделе":12152,"Red":12153,"препят":12154,"держи":12155,"относятся":12156,"##bi":12157,"CD":12158,"острова":12159,"Виль":12160,"IC":12161,"поселение":12162,"корпус":12163,"##уу":12164,"54":12165,"колен":12166,"Лит":12167,"издания":12168,"главы":12169,"##емости":12170,"##мета":12171,"присво":12172,"game":12173,"хрень":12174,"абстра":12175,"Будь":12176,"суббо":12177,"оборудование":12178,"=)":12179,"Большинство":12180,"##so":12181,"литератур":12182,"командир":12183,"##ische":12184,"деревя":12185,"version":12186,"анализ":12187,"##ks":12188,"Цен":12189,"##енского":12190,"гражданин":12191,"победы":12192,"курить":12193,"1915":12194,"public":12195,"шлю":12196,"академии":12197,"списке":12198,"расстояние":12199,"##писи":12200,"университете":12201,"проявля":12202,"коммунистов":12203,"##ЛЕ":12204,"плот":12205,"немцев":12206,"long":12207,"They":12208,"##зиа":12209,"восем":12210,"At":12211,"эмоции":12212,"Была":12213,"оставил":12214,"лечение":12215,"Air":12216,"##au":12217,"гни":12218,"коды":12219,"карьеру":12220,"##ier":12221,"##cy":12222,"сжи":12223,"представления":12224,"што":12225,"##фак":12226,"учить":12227,"##шель":12228,"##mu":12229,"усил":12230,"Center":12231,"комментария":12232,"BBC":12233,"гордо":12234,"There":12235,"действие":12236,"репута":12237,"##ida":12238,"дю":12239,"бабушка":12240,"имму":12241,"Best":12242,"вдоль":12243,"мягко":12244,"ом":12245,"вак":12246,"твоих":12247,"импера":12248,"Джор":12249,"1911":12250,"Company":12251,"Don":12252,"Si":12253,"главе":12254,"газета":12255,"больнице":12256,"##совет":12257,"сигнал":12258,"##ls":12259,"##бам":12260,"счастье":12261,"Black":12262,"##шё":12263,"украинцы":12264,"Израиль":12265,"востоке":12266,"вечера":12267,"53":12268,"проголосо":12269,"передачи":12270,"полета":12271,"раско":12272,"84":12273,"неожиданно":12274,"Hall":12275,"Вит":12276,"доми":12277,"известный":12278,"Europe":12279,"белый":12280,"ten":12281,"занимался":12282,"##кона":12283,"сравнить":12284,"land":12285,"придумы":12286,"##сказу":12287,"##кина":12288,"?..":12289,"##ini":12290,"Март":12291,"UTC":12292,"##han":12293,"крест":12294,"go":12295,"приходят":12296,"1916":12297,"##лочки":12298,"system":12299,"отсе":12300,"wereman":12301,"знакомый":12302,"Do":12303,"нег":12304,"девочки":12305,"Зюганова":12306,"group":12307,"##pt":12308,"зим":12309,"организм":12310,"уми":12311,"##фей":12312,"сформи":12313,"двигатели":12314,"##чом":12315,"дам":12316,"##35":12317,"Jan":12318,"вран":12319,"Ниж":12320,"английском":12321,"##ульта":12322,"лицом":12323,"1905":12324,"##tor":12325,"##бек":12326,"деньгами":12327,"home":12328,"57":12329,"Da":12330,"1908":12331,"дар":12332,"##цид":12333,"голода":12334,"##бус":12335,"58":12336,"##нях":12337,"fin":12338,"##ius":12339,"маленькие":12340,"раска":12341,"East":12342,"языком":12343,"музе":12344,"выигра":12345,"русски":12346,"брата":12347,"Star":12348,"эваку":12349,"подчин":12350,"music":12351,"##ликт":12352,"post":12353,"##нится":12354,"Японии":12355,"national":12356,"молча":12357,"high":12358,"set":12359,"Island":12360,"хватало":12361,"like":12362,"След":12363,"взаим":12364,"1907":12365,"любить":12366,"##ux":12367,"mas":12368,"нефти":12369,"now":12370,"ra":12371,"концерт":12372,"целей":12373,"молеку":12374,"##lik":12375,"##жней":12376,"##idae":12377,"сервис":12378,"59":12379,"возгла":12380,"##еса":12381,"##щали":12382,"героев":12383,"выдер":12384,"##рене":12385,"##шлось":12386,"гал":12387,"преодо":12388,"##iu":12389,"ущерб":12390,"наблюдения":12391,"##ker":12392,"баталь":12393,"достав":12394,"обычной":12395,"течении":12396,"схва":12397,"##летел":12398,"нагрузки":12399,"ряда":12400,"Сте":12401,"##гляды":12402,"Japan":12403,"умный":12404,"городского":12405,"средней":12406,"kg":12407,"Сен":12408,"show":12409,"off":12410,"увидели":12411,"бить":12412,"премии":12413,"вице":12414,"##ниями":12415,"Тим":12416,"##кают":12417,"борт":12418,"СР":12419,"##ua":12420,"##chen":12421,"плав":12422,"##ico":12423,"##няк":12424,"##тилась":12425,"шум":12426,"станция":12427,"Bu":12428,"фона":12429,"##ice":12430,"Open":12431,"Лев":12432,"##kk":12433,"major":12434,"подчи":12435,"юзер":12436,"##цкий":12437,",-":12438,"основная":12439,"Band":12440,"Journal":12441,"пт":12442,"##рился":12443,"1906":12444,"посовето":12445,"дефици":12446,"##вязыва":12447,"Od":12448,"Институт":12449,"art":12450,"1904":12451,"day":12452,"посыла":12453,"нала":12454,"попросил":12455,"1909":12456,"##ling":12457,"2019":12458,"пригото":12459,"лат":12460,"принадлежит":12461,"демонстри":12462,"we":12463,"або":12464,"брен":12465,"перешёл":12466,"чел":12467,"High":12468,"наст":12469,"иско":12470,"упал":12471,"здание":12472,"синг":12473,"Street":12474,"Пост":12475,"##con":12476,"итогам":12477,"куб":12478,"перео":12479,"инвест":12480,"утверждение":12481,"##дона":12482,"верто":12483,"##gan":12484,"спортс":12485,"Иль":12486,"истре":12487,"полицию":12488,"газеты":12489,"##енью":12490,"##емом":12491,"искусства":12492,"##тными":12493,"Per":12494,"танков":12495,"похожи":12496,"##zen":12497,"блог":12498,"Division":12499,"net":12500,"##аки":12501,"##ui":12502,"##стической":12503,"устой":12504,"Жиз":12505,"запретить":12506,"погибли":12507,"Воль":12508,"Mark":12509,"##ei":12510,"Подо":12511,"Time":12512,"Land":12513,"##рного":12514,"##фта":12515,"Nord":12516,"##лился":12517,"боло":12518,"рассказывал":12519,"способность":12520,"##чины":12521,"бомб":12522,"эле":12523,"письма":12524,"##rio":12525,"back":12526,"##era":12527,"духе":12528,"двигаться":12529,"гоме":12530,"##чере":12531,"Times":12532,"##щаю":12533,"##станции":12534,"##rd":12535,"гигант":12536,"##рени":12537,"German":12538,"##nik":12539,"советские":12540,"зда":12541,"Тол":12542,"девушку":12543,"##дена":12544,"личного":12545,"Is":12546,"ОБ":12547,"звание":12548,"##ликов":12549,"##сет":12550,"##74":12551,"нормальных":12552,"издание":12553,"Гал":12554,"##стик":12555,"##sch":12556,"нейтра":12557,"проз":12558,"опубликован":12559,"##http":12560,"##чел":12561,"ходили":12562,"черно":12563,"Сал":12564,"ов":12565,"Group":12566,"телевизор":12567,"Хва":12568,"руга":12569,"сохранить":12570,"пит":12571,"Муж":12572,"##ene":12573,"народов":12574,"Alexander":12575,"чемпионат":12576,"Live":12577,"62":12578,"термин":12579,"##ровании":12580,"##ука":12581,"отмечает":12582,"врагов":12583,"Верховного":12584,"живёт":12585,"88":12586,"сельсовета":12587,"исследований":12588,"Дем":12589,"video":12590,"лейтен":12591,"приста":12592,"Александров":12593,"mot":12594,"Radio":12595,"растет":12596,"меры":12597,"лаг":12598,"Os":12599,"##ляю":12600,"Осно":12601,"##lor":12602,"вечерин":12603,"черный":12604,"дне":12605,"##хам":12606,"##тивного":12607,"##zo":12608,"использовал":12609,"банди":12610,"##работать":12611,"Мир":12612,"Несколько":12613,"Представ":12614,"life":12615,"проби":12616,"##ley":12617,"МВД":12618,"##ставьте":12619,"остаётся":12620,"оппозиции":12621,"##ft":12622,"##вшейся":12623,"резер":12624,"ушли":12625,"короля":12626,"##евых":12627,"главного":12628,"line":12629,"Борис":12630,"квали":12631,"72":12632,"meg":12633,"грубо":12634,"опасности":12635,"дурак":12636,"##ris":12637,"main":12638,"fr":12639,"First":12640,"##вную":12641,"##kin":12642,"##евский":12643,"mi":12644,"Честно":12645,"спект":12646,"специфи":12647,"White":12648,"линей":12649,"сыграл":12650,"вытащи":12651,"Team":12652,"##жес":12653,"Ль":12654,"прошла":12655,"Петров":12656,"пропуска":12657,"##dan":12658,"Science":12659,"создал":12660,":))":12661,"##пь":12662,"предел":12663,"позднее":12664,"left":12665,"космоса":12666,"##МС":12667,"##ори":12668,"##вайтесь":12669,"Rock":12670,"Data":12671,"Op":12672,"Буд":12673,"самолета":12674,"убит":12675,"Леон":12676,"пил":12677,"бывшего":12678,"##ці":12679,"Фили":12680,"Соответ":12681,"шер":12682,"исполня":12683,"did":12684,"беда":12685,"смотри":12686,"1903":12687,":–":12688,"##bu":12689,"налог":12690,"##ile":12691,"82":12692,"Париж":12693,"пенсию":12694,"целе":12695,"ставят":12696,"министер":12697,"##ДО":12698,"управление":12699,"form":12700,"вовремя":12701,"Мини":12702,"заставляет":12703,"забро":12704,"экипаж":12705,"Лат":12706,"Фак":12707,"записы":12708,"англича":12709,"реп":12710,"демократии":12711,"ракету":12712,"##ходится":12713,"##тябре":12714,"щас":12715,"беспоко":12716,"половины":12717,"Лив":12718,"уступ":12719,"сфере":12720,"720":12721,"выигры":12722,"fa":12723,"##ленное":12724,"существенно":12725,"##хами":12726,"66":12727,"ушла":12728,"##ровую":12729,"##стин":12730,"News":12731,"колхо":12732,"##ином":12733,"From":12734,"##ale":12735,"86":12736,"Carl":12737,"тамо":12738,"интересо":12739,"уш":12740,"вли":12741,"инструмент":12742,"Испании":12743,"тащи":12744,"главная":12745,"участок":12746,"##ерами":12747,"посет":12748,"серий":12749,"карму":12750,"##вик":12751,"Арт":12752,"Пот":12753,"When":12754,"объяснять":12755,"поси":12756,"считал":12757,"собираются":12758,"##мир":12759,"##burg":12760,"rock":12761,"side":12762,"виноваты":12763,"экран":12764,"play":12765,"описание":12766,"1901":12767,"63":12768,"Белару":12769,"определение":12770,"##стрел":12771,"**":12772,"репре":12773,"VI":12774,"Пари":12775,"col":12776,"подой":12777,"Мил":12778,"гим":12779,"реклам":12780,"летний":12781,"науке":12782,"Su":12783,"##коль":12784,"разному":12785,"сложности":12786,"Tom":12787,"моём":12788,"if":12789,"ездил":12790,"Очевидно":12791,"Эм":12792,"##рованного":12793,"ОС":12794,"Первая":12795,"##товый":12796,"Atlas":12797,"Китая":12798,"ногами":12799,"##енский":12800,"Hill":12801,"делаем":12802,"##ique":12803,"##нении":12804,"педаго":12805,"тща":12806,"вопросе":12807,"борьбе":12808,"Действительно":12809,"Jones":12810,"кварта":12811,"поклон":12812,"##ano":12813,"сдох":12814,"1902":12815,"стратеги":12816,"##ського":12817,"##ido":12818,"Северной":12819,"96":12820,"толку":12821,"Рай":12822,"##ёс":12823,"##мером":12824,"1890":12825,"61":12826,"серебря":12827,"67":12828,"улыба":12829,"mar":12830,"турнира":12831,"выяснилось":12832,"корпуса":12833,"поступил":12834,"##нув":12835,"81":12836,"закрыт":12837,"178":12838,"98":12839,"97":12840,"охла":12841,"предложить":12842,"point":12843,"строительство":12844,"##ros":12845,"##гое":12846,"гид":12847,"##72":12848,"ребят":12849,"##риков":12850,"ценности":12851,"заключается":12852,"волосы":12853,"Jack":12854,"##up":12855,"материалов":12856,"##алу":12857,"##руем":12858,"Медведев":12859,"давали":12860,"##ino":12861,"##mann":12862,"банка":12863,"категории":12864,"Нако":12865,"##рана":12866,"##dy":12867,"пользователей":12868,"##енса":12869,"пробовал":12870,"Roman":12871,"Day":12872,"mu":12873,"уезд":12874,"оценить":12875,"top":12876,"недав":12877,"призы":12878,"автобус":12879,"Трампа":12880,"едва":12881,"клоу":12882,"платит":12883,"почита":12884,"конфи":12885,"скажешь":12886,"etc":12887,"идеа":12888,"##чников":12889,"молоко":12890,"неправ":12891,"##пая":12892,"нар":12893,"военного":12894,"серия":12895,"Real":12896,"индекс":12897,"бабло":12898,"##ms":12899,"рим":12900,"выез":12901,"##ito":12902,"##нче":12903,"##79":12904,"немедленно":12905,"футболист":12906,"Son":12907,"крово":12908,"Васи":12909,"##inen":12910,"выходные":12911,"боятся":12912,"конферен":12913,"подверг":12914,"занят":12915,"Sa":12916,"прие":12917,"простые":12918,"долг":12919,"83":12920,"##россий":12921,"разрабаты":12922,"##рович":12923,"сумас":12924,"плака":12925,"Экс":12926,"image":12927,"Internet":12928,"Достаточно":12929,"автоном":12930,"##ego":12931,"Прем":12932,"претензии":12933,"##ставляет":12934,"Име":12935,"##ревно":12936,"предусмот":12937,"третьего":12938,"Маг":12939,"76":12940,"radio":12941,"монет":12942,"##гур":12943,"император":12944,"лей":12945,"Европа":12946,"жертвы":12947,"тормоз":12948,"скла":12949,"##граф":12950,"##дото":12951,"уде":12952,"##ровались":12953,"вспомнил":12954,"##ima":12955,"состава":12956,"рецепт":12957,"##нись":12958,"стена":12959,"самолёт":12960,"##лева":12961,"героя":12962,"медаль":12963,"рациона":12964,"##сыла":12965,"простых":12966,"герцог":12967,"##енте":12968,"горе":12969,"92":12970,"##менов":12971,"центром":12972,"Ека":12973,"##рог":12974,"PDF":12975,"##рная":12976,"##тацию":12977,"кормить":12978,"##циям":12979,"##педи":12980,"кандидат":12981,"РД":12982,"сущ":12983,"расположена":12984,"##ставку":12985,"\"!":12986,"благополу":12987,"##ari":12988,"пунктов":12989,"сзади":12990,"93":12991,"Big":12992,"любил":12993,"##стане":12994,"program":12995,"законодатель":12996,"старой":12997,"посёлок":12998,"основные":12999,"##уна":13000,"What":13001,"##яют":13002,"1898":13003,"78":13004,"Бур":13005,"##дники":13006,"##kt":13007,"получит":13008,"##ставил":13009,"подсайте":13010,"основания":13011,"соответствует":13012,"концу":13013,"гиб":13014,"бассейны":13015,"best":13016,"##ters":13017,"##туи":13018,"##tr":13019,"Помимо":13020,"учитель":13021,"эст":13022,"зависим":13023,"иностранных":13024,"71":13025,"решений":13026,"##хнуть":13027,"покуп":13028,"##стана":13029,"media":13030,"91":13031,"Нау":13032,"забил":13033,"частично":13034,"РОСС":13035,"недви":13036,"##шкин":13037,"лик":13038,"77":13039,"сможешь":13040,"Party":13041,"##эк":13042,"сборную":13043,"годами":13044,"international":13045,"национальной":13046,"74":13047,"сумма":13048,"незакон":13049,"##ee":13050,"разд":13051,"штата":13052,"Совсем":13053,"продают":13054,"военной":13055,"Вин":13056,"73":13057,"Vol":13058,"##zy":13059,"суме":13060,"1897":13061,"обеспечить":13062,"1896":13063,"Сибир":13064,"##rat":13065,"пище":13066,"консульта":13067,"запуск":13068,"death":13069,"старая":13070,"прибыли":13071,"собирался":13072,"действовать":13073,"прибыль":13074,"обстанов":13075,"##пром":13076,"DVD":13077,"air":13078,"защищать":13079,"истреб":13080,"боевых":13081,"##бби":13082,"1899":13083,"поре":13084,"69":13085,"поти":13086,"сильный":13087,"vers":13088,"##we":13089,"объем":13090,"выде":13091,"акции":13092,"87":13093,"гипоте":13094,"##бище":13095,"ветер":13096,"единственное":13097,"##ія":13098,"##OS":13099,"аз":13100,"##gu":13101,"десяток":13102,"испорти":13103,"Great":13104,"стоить":13105,"Under":13106,"разным":13107,"снят":13108,"члена":13109,"идее":13110,"1895":13111,"укреп":13112,"уничтожить":13113,"##ждаться":13114,"чь":13115,"##менту":13116,"явление":13117,":-)":13118,"Мари":13119,"control":13120,"шикар":13121,"Of":13122,"пришёл":13123,"западе":13124,"With":13125,"##чились":13126,"##рала":13127,"##емаго":13128,"журнала":13129,"пласт":13130,"праздник":13131,"моги":13132,"Насчет":13133,"1077":13134,"##шению":13135,"Южной":13136,"аса":13137,"регионе":13138,"сделают":13139,"огромные":13140,"реальных":13141,"##let":13142,"Johann":13143,"Парнас":13144,"совершен":13145,"пиа":13146,"защиту":13147,"рубе":13148,"##АА":13149,"хок":13150,"Зи":13151,"неот":13152,"замечательно":13153,"89":13154,"Англии":13155,"нормальной":13156,"Nam":13157,"требуют":13158,"забу":13159,"Road":13160,"алгорит":13161,"найду":13162,"уволь":13163,"Откры":13164,"##чком":13165,"председатель":13166,"грамм":13167,"матча":13168,"мисс":13169,"помогать":13170,"##rum":13171,"красивые":13172,"МА":13173,"добиться":13174,"масштаб":13175,"##храни":13176,"##ффи":13177,"отмен":13178,"##имости":13179,"американский":13180,"проме":13181,"базу":13182,"##indows":13183,"перек":13184,"Сво":13185,"##вах":13186,"тести":13187,"школа":13188,"##ara":13189,"смотрели":13190,"Дет":13191,"содержание":13192,"попробуйте":13193,"##ys":13194,"##DA":13195,"Тре":13196,"Top":13197,"акций":13198,"душ":13199,"чит":13200,"##манов":13201,"##ПО":13202,"фронта":13203,"сд":13204,"принес":13205,"Европу":13206,"##нном":13207,"лечения":13208,"небес":13209,"свобода":13210,"Mit":13211,"немало":13212,"немножко":13213,"внес":13214,"Night":13215,"##ite":13216,"беру":13217,"##ФСР":13218,"угроз":13219,"##pen":13220,"флот":13221,"американские":13222,"экономику":13223,"местами":13224,"##utter":13225,"vol":13226,"##ez":13227,"By":13228,"различные":13229,"ter":13230,"условий":13231,"##ato":13232,"##доры":13233,"вмеша":13234,"##новения":13235,"фонд":13236,"##няю":13237,"##дре":13238,"1880":13239,"реклама":13240,"количеством":13241,"##use":13242,"прошлой":13243,"прики":13244,"танки":13245,"Гран":13246,"ВЫ":13247,"##валь":13248,"##ВИ":13249,"Version":13250,"##ele":13251,"причиной":13252,"Коре":13253,"отпуска":13254,"##арк":13255,"сок":13256,"борьба":13257,"##шут":13258,"перекре":13259,"book":13260,"94":13261,"##ьера":13262,"размера":13263,"государств":13264,"огне":13265,"##ser":13266,"счета":13267,"РСФСР":13268,"реальный":13269,"смен":13270,"подальше":13271,"засу":13272,"купили":13273,"персонажа":13274,"победу":13275,"lat":13276,"##ster":13277,"знаменит":13278,"перестал":13279,"##льте":13280,"України":13281,"напротив":13282,"инопланет":13283,"##альными":13284,"##вина":13285,"##пл":13286,"Germany":13287,"РН":13288,"свойства":13289,"##ула":13290,"степень":13291,"заметили":13292,"пофиг":13293,"ОТ":13294,"##ras":13295,"аэропорт":13296,"##ret":13297,"Super":13298,"мерз":13299,"проведения":13300,"!?":13301,"лай":13302,"79":13303,"рекоменда":13304,"##ити":13305,"ошибок":13306,"##PS":13307,"заняться":13308,"печень":13309,"##зает":13310,"1870":13311,"Вон":13312,"сою":13313,"целях":13314,"##эль":13315,"##ova":13316,"##анты":13317,"##chi":13318,"type":13319,"прокуро":13320,"гне":13321,"доверя":13322,"President":13323,"Предпо":13324,"правильный":13325,"полк":13326,"Лин":13327,"живой":13328,"магазина":13329,"##ненько":13330,"заморо":13331,"just":13332,"Бро":13333,"##ane":13334,"посу":13335,"оккупи":13336,"здраво":13337,"поход":13338,"клет":13339,"Оль":13340,"полного":13341,"траге":13342,"##тишь":13343,"##стное":13344,"##iva":13345,"110":13346,"запах":13347,"##ници":13348,"матчей":13349,"отделения":13350,"температуры":13351,"##ткой":13352,"заместитель":13353,"фотки":13354,"случится":13355,"Карл":13356,"Con":13357,"принадлежа":13358,"вете":13359,"вал":13360,"##лею":13361,"совместно":13362,"Напомним":13363,"Sir":13364,"##ook":13365,"Max":13366,"флаг":13367,"развле":13368,"##ЛЯ":13369,"металл":13370,"##бия":13371,"##ивали":13372,"пин":13373,"рабочий":13374,"Господи":13375,"рекорд":13376,"We":13377,"##сексу":13378,"господа":13379,"платформ":13380,"средний":13381,"администрации":13382,"##ye":13383,"населённых":13384,"максим":13385,"появляются":13386,"противостоя":13387,"##ain":13388,"##ивания":13389,"водителя":13390,"##ступи":13391,"экологи":13392,"персонажей":13393,"So":13394,"кожи":13395,"направление":13396,"какому":13397,"сестра":13398,"Однажды":13399,"see":13400,"леги":13401,"##ії":13402,"Михайлов":13403,"кандидата":13404,"##ць":13405,"наве":13406,"##ёром":13407,"умереть":13408,"##ogle":13409,"old":13410,"##ерия":13411,"tem":13412,"невероят":13413,"Кап":13414,"устройство":13415,"##ялся":13416,"Windows":13417,"появилось":13418,"Недавно":13419,"флота":13420,"Вспо":13421,"Донец":13422,"единорос":13423,"##sel":13424,"оценки":13425,"##лики":13426,"минусов":13427,"психотера":13428,"гомеопа":13429,"сад":13430,"##мия":13431,"##ona":13432,"испан":13433,"##mas":13434,"ошибку":13435,"использовали":13436,"картин":13437,"выбрали":13438,"штуки":13439,"слад":13440,"##ристо":13441,"##жество":13442,"имен":13443,"Антон":13444,"миром":13445,"##ський":13446,"down":13447,"Little":13448,"Arts":13449,"Блин":13450,"лесу":13451,"кладбище":13452,"##кнулся":13453,"##ковое":13454,"порти":13455,"Di":13456,"##имся":13457,"гип":13458,"##ландии":13459,"##вак":13460,"##чери":13461,"Джордж":13462,"##ВС":13463,"Power":13464,"##line":13465,"##фом":13466,"##van":13467,"теор":13468,"##ряда":13469,"баш":13470,"Research":13471,"##тье":13472,"##нета":13473,"live":13474,"Разумеется":13475,"##cha":13476,"(!)":13477,"виды":13478,"собственности":13479,"##ковского":13480,"##щению":13481,"училище":13482,"Позже":13483,"Blue":13484,"воевать":13485,"объективно":13486,"##кі":13487,"what":13488,"организма":13489,"##net":13490,"ich":13491,"Нар":13492,"коллек":13493,"тяжё":13494,"1891":13495,"Хотите":13496,"нафиг":13497,"##eur":13498,"##стар":13499,"VII":13500,"ОК":13501,"зон":13502,"поверхность":13503,"сбро":13504,"##еньше":13505,"##тивная":13506,"разработки":13507,"строительства":13508,"##aren":13509,"web":13510,"богат":13511,"car":13512,"##old":13513,"пакет":13514,"Советского":13515,"подгото":13516,"президентом":13517,"хз":13518,"##ira":13519,"угле":13520,"bet":13521,"педагог":13522,"Mar":13523,"##Это":13524,"##ree":13525,"кризи":13526,"##нать":13527,"заработать":13528,"источники":13529,"посадки":13530,"плохое":13531,"##lin":13532,"воскрес":13533,"фактов":13534,"согласны":13535,"вырос":13536,"Наши":13537,"Men":13538,"дорогие":13539,"Наш":13540,"Поп":13541,"Уви":13542,"климат":13543,"##ena":13544,"горизонта":13545,"ценно":13546,"буквы":13547,"Согласен":13548,"Global":13549,"Вскоре":13550,"курса":13551,"Ленина":13552,"##ise":13553,"##igh":13554,"грам":13555,"интересов":13556,"поколение":13557,"##кут":13558,"сэ":13559,"начнет":13560,"сквозь":13561,"духо":13562,"служил":13563,"родной":13564,"##ерий":13565,"соу":13566,"пациента":13567,"переу":13568,"отдал":13569,"XVIII":13570,"пределах":13571,"##ika":13572,"принимает":13573,"##дое":13574,"сочув":13575,"Йо":13576,"plan":13577,"Эл":13578,"тупой":13579,"Green":13580,"Lo":13581,"комиссии":13582,"##стояние":13583,"Adam":13584,"Good":13585,"Сами":13586,"автомат":13587,"Результа":13588,"сельское":13589,"##часа":13590,"семейства":13591,"коллег":13592,"снег":13593,"##eam":13594,"скан":13595,"поддерживает":13596,"ССР":13597,"make":13598,"##ану":13599,"чист":13600,"вар":13601,"важнее":13602,"##тельны":13603,"использует":13604,"росс":13605,"воро":13606,"улица":13607,"##able":13608,"резо":13609,"Co":13610,"атмосферу":13611,"##тори":13612,"конфликт":13613,"инициатив":13614,"Вполне":13615,"диви":13616,"камень":13617,"андрои":13618,"мульти":13619,".«":13620,"##sis":13621,"##яем":13622,"попали":13623,"##ченной":13624,"месту":13625,"Ed":13626,"пуст":13627,"рассе":13628,"состоянию":13629,"ученых":13630,"контакт":13631,"отзывы":13632,"запрещено":13633,"результатов":13634,"again":13635,"вступа":13636,"обмен":13637,"краса":13638,"Луну":13639,"##vel":13640,"##een":13641,"выяснить":13642,"Шар":13643,"инв":13644,"##ali":13645,"Arthur":13646,"##ring":13647,"##ves":13648,"сюр":13649,"сотен":13650,"Кавказ":13651,"показывать":13652,"##эффе":13653,"чужой":13654,"израиль":13655,"оза":13656,"состоялся":13657,"Bay":13658,"загру":13659,"разговаривать":13660,"Ува":13661,";-":13662,"##rover":13663,"##aba":13664,"Хот":13665,"бери":13666,"##oll":13667,"алкоголь":13668,"сахар":13669,"классе":13670,"дважды":13671,"Bill":13672,"посмотри":13673,"кис":13674,"Western":13675,"##стройки":13676,"?—":13677,"але":13678,"залож":13679,"##чайно":13680,"##тические":13681,"way":13682,"падения":13683,"##зка":13684,"бай":13685,"жрать":13686,"Чита":13687,"выно":13688,"ежедне":13689,"предс":13690,"бед":13691,"объяснение":13692,"желу":13693,"тенден":13694,"power":13695,"проекты":13696,"рис":13697,"архитектор":13698,"##ih":13699,"чёт":13700,"держит":13701,"##BC":13702,"##вати":13703,"model":13704,"волнует":13705,"ребёнок":13706,"сково":13707,"##ham":13708,"валют":13709,"##подоб":13710,"##шный":13711,"писатель":13712,"Прямо":13713,"депутата":13714,"состоялась":13715,"Над":13716,"полную":13717,"поговорим":13718,"позволи":13719,"мяч":13720,"Au":13721,"конструкции":13722,"Зав":13723,"##домо":13724,"##щенный":13725,"Two":13726,"house":13727,"Law":13728,"##чала":13729,"Её":13730,"##гри":13731,"приба":13732,"##ps":13733,"городской":13734,"##слей":13735,"сообщили":13736,"##лар":13737,"Вместе":13738,"рассчита":13739,"177":13740,"Her":13741,"Ей":13742,"установить":13743,"шансы":13744,"##ляем":13745,"Сиби":13746,"ультра":13747,"бесконе":13748,"силами":13749,"эпох":13750,"звезда":13751,"автоматически":13752,"Серге":13753,"##сками":13754,"Владимира":13755,"верят":13756,"печат":13757,"Гитлер":13758,"свободно":13759,"сиг":13760,"гугл":13761,"maj":13762,"Извини":13763,"начн":13764,"соревно":13765,"фигур":13766,"law":13767,"##ГБ":13768,"стандарт":13769,"Li":13770,"##ati":13771,"музыки":13772,"##62":13773,"диз":13774,"персонаж":13775,"Глу":13776,"Сю":13777,"Длина":13778,"рейтинг":13779,"##мысли":13780,"исходя":13781,"##нными":13782,"начальника":13783,"кризис":13784,"ГМО":13785,"изменится":13786,"применения":13787,"выбрал":13788,"##грамот":13789,"1887":13790,"фантазии":13791,"##ory":13792,"песня":13793,"услуг":13794,"##ентами":13795,"товарищи":13796,"сочин":13797,"заявля":13798,"Юго":13799,"готовить":13800,"ключ":13801,"играют":13802,"цивилизации":13803,"приток":13804,"Говорят":13805,"востоку":13806,"face":13807,"Прим":13808,"##влено":13809,"amp":13810,"##кручи":13811,"сходить":13812,"Слава":13813,"##нусь":13814,"выиграл":13815,"Ben":13816,"##тирую":13817,"помните":13818,"Long":13819,"цы":13820,"##пления":13821,"возьм":13822,"##ami":13823,"универса":13824,"пола":13825,"Кост":13826,"##ide":13827,"законопро":13828,"родственников":13829,"##тиях":13830,"верит":13831,"##зен":13832,"бюро":13833,"##ala":13834,"приехали":13835,"Пора":13836,"выполня":13837,"##ons":13838,"ногу":13839,"ван":13840,"##ae":13841,"##ждением":13842,"дабы":13843,"##рун":13844,"завода":13845,"отврати":13846,"нуля":13847,"1860":13848,"cap":13849,"забавно":13850,"Энер":13851,"потряса":13852,"Media":13853,"пошёл":13854,"обре":13855,"понедель":13856,"искусств":13857,"веса":13858,"выращи":13859,"Office":13860,"##met":13861,"обязаны":13862,"style":13863,"##чую":13864,"государственный":13865,"встречал":13866,"орбите":13867,"##нков":13868,"находились":13869,"##het":13870,"##ната":13871,"проигра":13872,"доволь":13873,"настоящие":13874,"Вид":13875,"питание":13876,"Петербурге":13877,"сторона":13878,"четвёр":13879,"фабри":13880,"##fa":13881,"оборон":13882,"##кома":13883,"##жало":13884,"Никола":13885,"воин":13886,"full":13887,"условно":13888,"швед":13889,"Президент":13890,"##yn":13891,"предлагают":13892,"Хороший":13893,"узнали":13894,"подсайт":13895,"Force":13896,"издатель":13897,"пройдет":13898,"##ford":13899,"Самый":13900,"130":13901,"каме":13902,"##ленными":13903,"звезд":13904,"Следу":13905,"полё":13906,"Ната":13907,"##cher":13908,"##ism":13909,"Филипп":13910,"метра":13911,"Куз":13912,"хлеба":13913,"Oldrover":13914,"разбер":13915,"второ":13916,"компанией":13917,"Член":13918,"Марк":13919,"##field":13920,"китайцы":13921,"багаж":13922,"Максим":13923,"##логом":13924,"##стся":13925,"правления":13926,"##оза":13927,"list":13928,"клиентов":13929,"понадобится":13930,"передо":13931,"Скажи":13932,"антиби":13933,"обед":13934,"соседей":13935,"Сав":13936,"имела":13937,"разма":13938,"участвовать":13939,"сообщалось":13940,"Пок":13941,"##живать":13942,"дж":13943,"Первой":13944,"людях":13945,"чудови":13946,"ЭТО":13947,"песен":13948,"Str":13949,"##----------------":13950,"штам":13951,"Lord":13952,"стояли":13953,"музей":13954,"Киеве":13955,"##риса":13956,"пап":13957,"следующие":13958,"Стал":13959,"right":13960,"##произво":13961,"Show":13962,"ордена":13963,"удосто":13964,"перевед":13965,"возможностей":13966,"новом":13967,"направля":13968,"стратег":13969,"гвардей":13970,"молодых":13971,"научно":13972,"жиль":13973,"аф":13974,"Russian":13975,"зелё":13976,"логике":13977,"##ису":13978,"##стная":13979,"среду":13980,"##iss":13981,"спон":13982,"отдельные":13983,"Московского":13984,"русо":13985,"штур":13986,"Чеч":13987,"увлека":13988,"прор":13989,"магазинах":13990,"##urs":13991,"нести":13992,"понимал":13993,"изли":13994,"угла":13995,"min":13996,"##шила":13997,"real":13998,"устроить":13999,"словах":14000,"Service":14001,"тянет":14002,"Are":14003,"прочего":14004,"заявили":14005,"способности":14006,"ответили":14007,"##шало":14008,"мут":14009,"столо":14010,"##ous":14011,"основы":14012,"плоско":14013,"телефону":14014,"известен":14015,"##чах":14016,"яи":14017,"Alex":14018,"турнире":14019,"счастью":14020,"ИМ":14021,"Наконец":14022,"остальным":14023,"нагрузка":14024,"призем":14025,"слава":14026,"дальнейшем":14027,"билет":14028,"рисо":14029,"##orn":14030,"##вив":14031,"##po":14032,"перекры":14033,"рок":14034,"выпа":14035,"душа":14036,"ах":14037,"топливо":14038,"местного":14039,"орденом":14040,"вый":14041,"грани":14042,"государственной":14043,"еда":14044,"Bank":14045,"жё":14046,"##евича":14047,"знакомые":14048,"##ённая":14049,"расход":14050,"собственных":14051,"комитет":14052,"счастья":14053,"живых":14054,"Люб":14055,"производи":14056,"900":14057,"экономике":14058,"##ТЕ":14059,"отдельных":14060,"одноим":14061,"пей":14062,"##плю":14063,"Украин":14064,"неоднократно":14065,"Your":14066,"отверсти":14067,"Нач":14068,"соревнования":14069,"диссерта":14070,"Тра":14071,"арестован":14072,"заплатить":14073,"Харь":14074,"##ult":14075,"полноцен":14076,"##ese":14077,"вакци":14078,"особенности":14079,"умные":14080,"pt":14081,"опи":14082,"брю":14083,"демаго":14084,"##гала":14085,"справедли":14086,"нови":14087,"мульт":14088,"##думан":14089,"западу":14090,"люд":14091,"ВВС":14092,"повторить":14093,"ноч":14094,"Bob":14095,"спрашиваю":14096,"gov":14097,"задачу":14098,"языков":14099,"желательно":14100,"Бли":14101,"являлся":14102,"неужели":14103,"резерв":14104,"привяза":14105,"сосу":14106,"let":14107,"class":14108,"##эл":14109,"муниципального":14110,"потребу":14111,"##ral":14112,"симпто":14113,"Слишком":14114,"зомби":14115,"Inc":14116,"рассматривать":14117,"секретарь":14118,"эв":14119,"Итали":14120,"реке":14121,"1861":14122,"перевоз":14123,"поделиться":14124,"участия":14125,"аппарата":14126,"Мет":14127,"фина":14128,"изде":14129,"похи":14130,"Мексику":14131,"##рада":14132,"ac":14133,"Гр":14134,"Стан":14135,"Луне":14136,"шансов":14137,"ся":14138,"преде":14139,"старт":14140,"покупки":14141,"располага":14142,"моди":14143,"расписа":14144,"##есса":14145,"##хие":14146,"председателя":14147,"войсками":14148,"упразд":14149,"##an_":14150,"герб":14151,"популярных":14152,"##yi":14153,"Empire":14154,"Грузии":14155,"##чам":14156,"##ционное":14157,"That":14158,"облег":14159,"1800":14160,"обычная":14161,"всякой":14162,"##шенные":14163,"схема":14164,"Закон":14165,"представление":14166,"##талки":14167,"Up":14168,"вошли":14169,"##дников":14170,"необходимость":14171,"привел":14172,"брал":14173,"Мад":14174,"белые":14175,"вклад":14176,"релиз":14177,"эволюции":14178,"##руб":14179,"советского":14180,"обл":14181,"##ровке":14182,"##оке":14183,"интересного":14184,"основных":14185,"контин":14186,"Подробнее":14187,"Поми":14188,"ато":14189,"Пика":14190,"Алексе":14191,"##гиба":14192,"Republic":14193,"##емую":14194,"Boston":14195,"design":14196,"перестали":14197,"##точку":14198,"поэт":14199,"Европей":14200,"доли":14201,"Special":14202,"выполнять":14203,"##ungen":14204,"##телен":14205,"попр":14206,"Дети":14207,"Док":14208,"mer":14209,"каль":14210,"корм":14211,"недвижи":14212,"закрыть":14213,"вкусу":14214,"Даль":14215,"Queen":14216,"мусульман":14217,"##ляцию":14218,"Вспомни":14219,"Уз":14220,"VIII":14221,"событие":14222,"положения":14223,"ранен":14224,"полете":14225,"застав":14226,"Program":14227,"Объяс":14228,"pop":14229,"ликви":14230,"term":14231,"входят":14232,"глю":14233,"связаны":14234,"##hu":14235,"изменилось":14236,"команде":14237,"Майк":14238,"зарубе":14239,"Участ":14240,"кавал":14241,"##тино":14242,"лиги":14243,"##чаю":14244,"выступил":14245,"Оригинал":14246,"включает":14247,"##ake":14248,"ждал":14249,"##pss":14250,"предприятия":14251,"Ha":14252,"##igen":14253,"розо":14254,"пропи":14255,"Ma":14256,"араб":14257,"настроение":14258,"##85":14259,"##ement":14260,"оставаться":14261,"##чон":14262,"внутренних":14263,"##ченным":14264,"источников":14265,"архитек":14266,"Andre":14267,"пь":14268,"пога":14269,"##лятся":14270,"собственные":14271,"мигра":14272,"штаба":14273,"##нился":14274,"##bus":14275,"объектов":14276,"##дателя":14277,"показатель":14278,"##вказ":14279,"обращения":14280,"исследователь":14281,"##bel":14282,"Красной":14283,"выклады":14284,"богу":14285,"примере":14286,"агентства":14287,"нужда":14288,"##тере":14289,"##rin":14290,"советую":14291,"##мами":14292,".*":14293,"попадает":14294,"##идов":14295,"##ili":14296,"террорист":14297,"ft":14298,"коррек":14299,"следующей":14300,"паспорта":14301,"преследо":14302,"apos":14303,"прекрасный":14304,"Родина":14305,"БО":14306,"##деся":14307,"Je":14308,"отличная":14309,"понедельник":14310,"##ila":14311,"ckk":14312,"Book":14313,"##ьёз":14314,"ckkpss":14315,"яс":14316,"Примерно":14317,"откровенно":14318,"Эль":14319,"кула":14320,"выходить":14321,"Des":14322,"восемь":14323,"диагности":14324,"пош":14325,"растут":14326,"лист":14327,"уход":14328,"игнори":14329,"##ater":14330,"Эх":14331,"стараюсь":14332,"примени":14333,"быст":14334,"согласо":14335,"Констан":14336,"пирами":14337,"смени":14338,"##нс":14339,"Digital":14340,"спутников":14341,"домо":14342,"##ницах":14343,"ребенком":14344,"##uters":14345,"промышленности":14346,"авторитет":14347,"Рого":14348,"сумасшед":14349,"принимал":14350,"доказывать":14351,"##чилось":14352,"Новгород":14353,"Sky":14354,"прогресс":14355,"следить":14356,"##ram":14357,"##ИИ":14358,"##вие":14359,"##ider":14360,"160":14361,"сухо":14362,"кай":14363,"начальник":14364,"Тро":14365,"интереснее":14366,"распре":14367,"объявил":14368,"Ворон":14369,"футболу":14370,"варианта":14371,"##дря":14372,"перец":14373,"вкусно":14374,"##иду":14375,"каждое":14376,"##нутый":14377,"успели":14378,"полчаса":14379,"объясняет":14380,"Жу":14381,"конференции":14382,"Ray":14383,"Обе":14384,"холодиль":14385,"спортсмен":14386,"сердца":14387,"закончится":14388,"Аг":14389,"##шаю":14390,"чувствовать":14391,"пропаганды":14392,"1850":14393,"гли":14394,"Ур":14395,"Болгар":14396,"Some":14397,"проголосу":14398,"некуда":14399,"Google":14400,"##ГА":14401,"лозун":14402,"бои":14403,"XIII":14404,"online":14405,"одних":14406,"##льней":14407,"Большо":14408,"столкнов":14409,"Home":14410,"Соответственно":14411,"Азии":14412,"лек":14413,"##прф":14414,"##iti":14415,"##мии":14416,"##asy":14417,"вменя":14418,"##ковский":14419,"Reuters":14420,"велосипед":14421,"золото":14422,"статей":14423,"##тывать":14424,"позор":14425,"суммы":14426,"муници":14427,"привлек":14428,"металли":14429,"абсу":14430,"Сев":14431,"project":14432,"требовать":14433,"1500":14434,"##rus":14435,"##лков":14436,"##шешь":14437,"составил":14438,"##иваются":14439,"##менял":14440,"клетки":14441,"колхоз":14442,"размыш":14443,"App":14444,"сроки":14445,"корабли":14446,"ass":14447,"аккуратно":14448,"Nature":14449,"преступление":14450,"1072":14451,"первен":14452,"внутрь":14453,"некоторым":14454,"##пление":14455,"коллеги":14456,"SS":14457,"научных":14458,"XVII":14459,"кота":14460,"Хор":14461,"появления":14462,"медали":14463,"полезно":14464,"коммент":14465,"Йорк":14466,"Егип":14467,"vi":14468,"русско":14469,"140":14470,"проекти":14471,"актёр":14472,"free":14473,"отсутствии":14474,"Явля":14475,"разрешение":14476,"существовать":14477,"вскры":14478,"Sun":14479,"Act":14480,"среде":14481,"мил":14482,"##ding":14483,"трое":14484,"отпуск":14485,"бум":14486,"Пох":14487,"разбираться":14488,"оплачи":14489,"##За":14490,"снаружи":14491,"компон":14492,"американской":14493,"поддержка":14494,"Макси":14495,"коммуна":14496,"##ett":14497,"нейро":14498,"sub":14499,"##ГУ":14500,"сообщества":14501,"журнал":14502,"проблемой":14503,"##ъек":14504,"природ":14505,"Georg":14506,"давления":14507,"директора":14508,"статистика":14509,"исследование":14510,"Andrew":14511,"##димся":14512,"аргументы":14513,"Эли":14514,"справедливости":14515,"подписал":14516,"Часть":14517,"эксплуатации":14518,"Фил":14519,"рабочие":14520,"днях":14521,"##ness":14522,"Mario":14523,"##хуя":14524,"##ani":14525,"##спи":14526,"God":14527,"Мария":14528,"##фек":14529,"члены":14530,"##бла":14531,"остаются":14532,"##anov":14533,"Центра":14534,"красота":14535,"белых":14536,"проник":14537,"дворян":14538,"Bad":14539,"больницу":14540,"Хол":14541,"замер":14542,"##май":14543,"##поле":14544,"прошлое":14545,"##биться":14546,"»?":14547,"куби":14548,"сравнения":14549,"##уне":14550,"слаб":14551,"Гей":14552,"полос":14553,"Суще":14554,"колеса":14555,"круче":14556,"fi":14557,"##pr":14558,"международных":14559,"125":14560,"Белоруссии":14561,"хол":14562,"XIV":14563,"Увы":14564,"делала":14565,"Спи":14566,"Стали":14567,"Online":14568,"РБ":14569,"##ella":14570,"##влин":14571,"Видео":14572,"заново":14573,"понравится":14574,"берет":14575,"севере":14576,"##тре":14577,"стрель":14578,"женщину":14579,"зоне":14580,"следующем":14581,"Иванович":14582,"оси":14583,"брау":14584,"священ":14585,"пузы":14586,"физически":14587,"##ментировать":14588,"мудак":14589,"##дивительно":14590,"реф":14591,"##ньку":14592,"эксперт":14593,"настаи":14594,"##наб":14595,"широко":14596,"мощности":14597,"##дру":14598,"open":14599,"коллектив":14600,"недоволь":14601,"##стон":14602,"Hot":14603,"дед":14604,"бабки":14605,"кухне":14606,"run":14607,"Отсюда":14608,"XII":14609,"фашист":14610,"фамилия":14611,"##дцати":14612,"дорогая":14613,"советы":14614,"преимущественно":14615,"Пат":14616,"обучения":14617,"занимал":14618,"Жела":14619,"слышать":14620,"неважно":14621,"заст":14622,"EP":14623,"Дал":14624,"сило":14625,"совпад":14626,"бросить":14627,"избавиться":14628,"Наиболее":14629,"обсуждения":14630,"вв":14631,"царя":14632,"просил":14633,"##тник":14634,"101":14635,"##ступление":14636,"деревян":14637,"Шо":14638,"чей":14639,"четверг":14640,"Рич":14641,"перепи":14642,"пыталась":14643,"##way":14644,"##фикси":14645,
[...]
